alignas(16) const unsigned char model_tflite[] = {
0x1c, 0x00, 0x00, 0x00, 0x54, 0x46, 0x4c, 0x33, 0x14, 0x00, 0x20, 0x00,
0x1c, 0x00, 0x18, 0x00, 0x14, 0x00, 0x10, 0x00, 0x0c, 0x00, 0x00, 0x00,
0x08, 0x00, 0x04, 0x00, 0x14, 0x00, 0x00, 0x00, 0x1c, 0x00, 0x00, 0x00,
0x88, 0x00, 0x00, 0x00, 0x08, 0x01, 0x00, 0x00, 0xdc, 0x0f, 0x00, 0x00,
0xec, 0x0f, 0x00, 0x00, 0x34, 0x84, 0x00, 0x00, 0x03, 0x00, 0x00, 0x00,
0x01, 0x00, 0x00, 0x00, 0x04, 0x00, 0x00, 0x00, 0x0a, 0xde, 0xff, 0xff,
0x0c, 0x00, 0x00, 0x00, 0x1c, 0x00, 0x00, 0x00, 0x3c, 0x00, 0x00, 0x00,
0x0f, 0x00, 0x00, 0x00, 0x73, 0x65, 0x72, 0x76, 0x69, 0x6e, 0x67, 0x5f,
0x64, 0x65, 0x66, 0x61, 0x75, 0x6c, 0x74, 0x00, 0x01, 0x00, 0x00, 0x00,
0x04, 0x00, 0x00, 0x00, 0x6c, 0xff, 0xff, 0xff, 0x9a, 0x00, 0x00, 0x00,
0x04, 0x00, 0x00, 0x00, 0x08, 0x00, 0x00, 0x00, 0x6f, 0x75, 0x74, 0x70,
0x75, 0x74, 0x5f, 0x30, 0x00, 0x00, 0x00, 0x00, 0x01, 0x00, 0x00, 0x00,
0x04, 0x00, 0x00, 0x00, 0xae, 0xee, 0xff, 0xff, 0x04, 0x00, 0x00, 0x00,
0x0b, 0x00, 0x00, 0x00, 0x69, 0x6e, 0x70, 0x75, 0x74, 0x5f, 0x6c, 0x61,
0x79, 0x65, 0x72, 0x00, 0x03, 0x00, 0x00, 0x00, 0x5c, 0x00, 0x00, 0x00,
0x2c, 0x00, 0x00, 0x00, 0x04, 0x00, 0x00, 0x00, 0xb8, 0xff, 0xff, 0xff,
0x9e, 0x00, 0x00, 0x00, 0x04, 0x00, 0x00, 0x00, 0x13, 0x00, 0x00, 0x00,
0x43, 0x4f, 0x4e, 0x56, 0x45, 0x52, 0x53, 0x49, 0x4f, 0x4e, 0x5f, 0x4d,
0x45, 0x54, 0x41, 0x44, 0x41, 0x54, 0x41, 0x00, 0xdc, 0xff, 0xff, 0xff,
0x9d, 0x00, 0x00, 0x00, 0x04, 0x00, 0x00, 0x00, 0x13, 0x00, 0x00, 0x00,
0x6d, 0x69, 0x6e, 0x5f, 0x72, 0x75, 0x6e, 0x74, 0x69, 0x6d, 0x65, 0x5f,
0x76, 0x65, 0x72, 0x73, 0x69, 0x6f, 0x6e, 0x00, 0x08, 0x00, 0x0c, 0x00,
0x08, 0x00, 0x04, 0x00, 0x08, 0x00, 0x00, 0x00, 0x9c, 0x00, 0x00, 0x00,
0x04, 0x00, 0x00, 0x00, 0x13, 0x00, 0x00, 0x00, 0x6d, 0x69, 0x6e, 0x5f,
0x72, 0x75, 0x6e, 0x74, 0x69, 0x6d, 0x65, 0x5f, 0x76, 0x65, 0x72, 0x73,
0x69, 0x6f, 0x6e, 0x00, 0x9f, 0x00, 0x00, 0x00, 0xd0, 0x0e, 0x00, 0x00,
0xc8, 0x0e, 0x00, 0x00, 0xa0, 0x0e, 0x00, 0x00, 0x8c, 0x0e, 0x00, 0x00,
0x70, 0x0e, 0x00, 0x00, 0x48, 0x0e, 0x00, 0x00, 0x34, 0x0e, 0x00, 0x00,
0x1c, 0x0e, 0x00, 0x00, 0x00, 0x0e, 0x00, 0x00, 0xd8, 0x0d, 0x00, 0x00,
0xc4, 0x0d, 0x00, 0x00, 0xa8, 0x0d, 0x00, 0x00, 0x80, 0x0d, 0x00, 0x00,
0x6c, 0x0d, 0x00, 0x00, 0x50, 0x0d, 0x00, 0x00, 0x28, 0x0d, 0x00, 0x00,
0x14, 0x0d, 0x00, 0x00, 0xfc, 0x0c, 0x00, 0x00, 0xe0, 0x0c, 0x00, 0x00,
0xb8, 0x0c, 0x00, 0x00, 0xa4, 0x0c, 0x00, 0x00, 0x8c, 0x0c, 0x00, 0x00,
0x70, 0x0c, 0x00, 0x00, 0x54, 0x0c, 0x00, 0x00, 0x38, 0x0c, 0x00, 0x00,
0x1c, 0x0c, 0x00, 0x00, 0xf8, 0x0b, 0x00, 0x00, 0xac, 0x0b, 0x00, 0x00,
0x6c, 0x0b, 0x00, 0x00, 0x14, 0x0b, 0x00, 0x00, 0xfc, 0x0a, 0x00, 0x00,
0x80, 0x0a, 0x00, 0x00, 0x68, 0x0a, 0x00, 0x00, 0xec, 0x09, 0x00, 0x00,
0xd4, 0x09, 0x00, 0x00, 0x58, 0x09, 0x00, 0x00, 0x40, 0x09, 0x00, 0x00,
0xc4, 0x08, 0x00, 0x00, 0xac, 0x08, 0x00, 0x00, 0x30, 0x08, 0x00, 0x00,
0x18, 0x08, 0x00, 0x00, 0x9c, 0x07, 0x00, 0x00, 0x84, 0x07, 0x00, 0x00,
0x08, 0x07, 0x00, 0x00, 0xf0, 0x06, 0x00, 0x00, 0x74, 0x06, 0x00, 0x00,
0x5c, 0x06, 0x00, 0x00, 0xe0, 0x05, 0x00, 0x00, 0xc8, 0x05, 0x00, 0x00,
0xa0, 0x05, 0x00, 0x00, 0x98, 0x05, 0x00, 0x00, 0x90, 0x05, 0x00, 0x00,
0x88, 0x05, 0x00, 0x00, 0x80, 0x05, 0x00, 0x00, 0x78, 0x05, 0x00, 0x00,
0x70, 0x05, 0x00, 0x00, 0x68, 0x05, 0x00, 0x00, 0x60, 0x05, 0x00, 0x00,
0x58, 0x05, 0x00, 0x00, 0xdc, 0x04, 0x00, 0x00, 0xb4, 0x04, 0x00, 0x00,
0x38, 0x04, 0x00, 0x00, 0x10, 0x04, 0x00, 0x00, 0x94, 0x03, 0x00, 0x00,
0x8c, 0x03, 0x00, 0x00, 0x84, 0x03, 0x00, 0x00, 0x7c, 0x03, 0x00, 0x00,
0x74, 0x03, 0x00, 0x00, 0x6c, 0x03, 0x00, 0x00, 0x64, 0x03, 0x00, 0x00,
0x5c, 0x03, 0x00, 0x00, 0x54, 0x03, 0x00, 0x00, 0x4c, 0x03, 0x00, 0x00,
0x44, 0x03, 0x00, 0x00, 0x3c, 0x03, 0x00, 0x00, 0x34, 0x03, 0x00, 0x00,
0x2c, 0x03, 0x00, 0x00, 0x24, 0x03, 0x00, 0x00, 0x1c, 0x03, 0x00, 0x00,
0x14, 0x03, 0x00, 0x00, 0x0c, 0x03, 0x00, 0x00, 0x04, 0x03, 0x00, 0x00,
0xfc, 0x02, 0x00, 0x00, 0xf4, 0x02, 0x00, 0x00, 0xec, 0x02, 0x00, 0x00,
0xe4, 0x02, 0x00, 0x00, 0xdc, 0x02, 0x00, 0x00, 0xd4, 0x02, 0x00, 0x00,
0xcc, 0x02, 0x00, 0x00, 0xc4, 0x02, 0x00, 0x00, 0xbc, 0x02, 0x00, 0x00,
0xb4, 0x02, 0x00, 0x00, 0xac, 0x02, 0x00, 0x00, 0xa4, 0x02, 0x00, 0x00,
0x9c, 0x02, 0x00, 0x00, 0x94, 0x02, 0x00, 0x00, 0x8c, 0x02, 0x00, 0x00,
0x84, 0x02, 0x00, 0x00, 0x7c, 0x02, 0x00, 0x00, 0x74, 0x02, 0x00, 0x00,
0x6c, 0x02, 0x00, 0x00, 0x64, 0x02, 0x00, 0x00, 0x5c, 0x02, 0x00, 0x00,
0x54, 0x02, 0x00, 0x00, 0x4c, 0x02, 0x00, 0x00, 0x44, 0x02, 0x00, 0x00,
0x3c, 0x02, 0x00, 0x00, 0x34, 0x02, 0x00, 0x00, 0x2c, 0x02, 0x00, 0x00,
0x24, 0x02, 0x00, 0x00, 0x1c, 0x02, 0x00, 0x00, 0x14, 0x02, 0x00, 0x00,
0x0c, 0x02, 0x00, 0x00, 0x04, 0x02, 0x00, 0x00, 0xfc, 0x01, 0x00, 0x00,
0xf4, 0x01, 0x00, 0x00, 0xec, 0x01, 0x00, 0x00, 0xe4, 0x01, 0x00, 0x00,
0xdc, 0x01, 0x00, 0x00, 0xd4, 0x01, 0x00, 0x00, 0xcc, 0x01, 0x00, 0x00,
0xc4, 0x01, 0x00, 0x00, 0xbc, 0x01, 0x00, 0x00, 0xb4, 0x01, 0x00, 0x00,
0xac, 0x01, 0x00, 0x00, 0xa4, 0x01, 0x00, 0x00, 0x9c, 0x01, 0x00, 0x00,
0x94, 0x01, 0x00, 0x00, 0x8c, 0x01, 0x00, 0x00, 0x84, 0x01, 0x00, 0x00,
0x7c, 0x01, 0x00, 0x00, 0x74, 0x01, 0x00, 0x00, 0x6c, 0x01, 0x00, 0x00,
0x64, 0x01, 0x00, 0x00, 0x5c, 0x01, 0x00, 0x00, 0x54, 0x01, 0x00, 0x00,
0x4c, 0x01, 0x00, 0x00, 0x44, 0x01, 0x00, 0x00, 0x3c, 0x01, 0x00, 0x00,
0x34, 0x01, 0x00, 0x00, 0x2c, 0x01, 0x00, 0x00, 0x24, 0x01, 0x00, 0x00,
0x1c, 0x01, 0x00, 0x00, 0x14, 0x01, 0x00, 0x00, 0x0c, 0x01, 0x00, 0x00,
0x04, 0x01, 0x00, 0x00, 0xfc, 0x00, 0x00, 0x00, 0xf4, 0x00, 0x00, 0x00,
0xec, 0x00, 0x00, 0x00, 0xe4, 0x00, 0x00, 0x00, 0xdc, 0x00, 0x00, 0x00,
0xd4, 0x00, 0x00, 0x00, 0xcc, 0x00, 0x00, 0x00, 0xc4, 0x00, 0x00, 0x00,
0xbc, 0x00, 0x00, 0x00, 0xb4, 0x00, 0x00, 0x00, 0x94, 0x00, 0x00, 0x00,
0x74, 0x00, 0x00, 0x00, 0x04, 0x00, 0x00, 0x00, 0xca, 0xf1, 0xff, 0xff,
0x04, 0x00, 0x00, 0x00, 0x60, 0x00, 0x00, 0x00, 0x0c, 0x00, 0x00, 0x00,
0x08, 0x00, 0x0e, 0x00, 0x08, 0x00, 0x04, 0x00, 0x08, 0x00, 0x00, 0x00,
0x10, 0x00, 0x00, 0x00, 0x28, 0x00, 0x00, 0x00, 0x00, 0x00, 0x06, 0x00,
0x08, 0x00, 0x04, 0x00, 0x06, 0x00, 0x00, 0x00, 0x04, 0x00, 0x00, 0x00,
0x01, 0x00, 0x00, 0x00, 0xeb, 0x03, 0x00, 0x00, 0x0c, 0x00, 0x18, 0x00,
0x14, 0x00, 0x10, 0x00, 0x0c, 0x00, 0x04, 0x00, 0x0c, 0x00, 0x00, 0x00,
0x63, 0xc9, 0x63, 0xfd, 0xf1, 0x39, 0x1e, 0xf3, 0x02, 0x00, 0x00, 0x00,
0x02, 0x00, 0x00, 0x00, 0x04, 0x00, 0x00, 0x00, 0x06, 0x00, 0x00, 0x00,
0x32, 0x2e, 0x31, 0x39, 0x2e, 0x30, 0x00, 0x00, 0x36, 0xf2, 0xff, 0xff,
0x04, 0x00, 0x00, 0x00, 0x10, 0x00, 0x00, 0x00, 0x00, 0x00, 0x00, 0x00,
0x00, 0x00, 0x00, 0x00, 0x00, 0x00, 0x00, 0x00, 0x00, 0x00, 0x00, 0x00,
0x52, 0xf2, 0xff, 0xff, 0x04, 0x00, 0x00, 0x00, 0x10, 0x00, 0x00, 0x00,
0x32, 0x2e, 0x33, 0x2e, 0x30, 0x00, 0x00, 0x00, 0x00, 0x00, 0x00, 0x00,
0x00, 0x00, 0x00, 0x00, 0xc0, 0x80, 0xff, 0xff, 0xc4, 0x80, 0xff, 0xff,
0xc8, 0x80, 0xff, 0xff, 0xcc, 0x80, 0xff, 0xff, 0xd0, 0x80, 0xff, 0xff,
0xd4, 0x80, 0xff, 0xff, 0xd8, 0x80, 0xff, 0xff, 0xdc, 0x80, 0xff, 0xff,
0xe0, 0x80, 0xff, 0xff, 0xe4, 0x80, 0xff, 0xff, 0xe8, 0x80, 0xff, 0xff,
0xec, 0x80, 0xff, 0xff, 0xf0, 0x80, 0xff, 0xff, 0xf4, 0x80, 0xff, 0xff,
0xf8, 0x80, 0xff, 0xff, 0xfc, 0x80, 0xff, 0xff, 0x00, 0x81, 0xff, 0xff,
0x04, 0x81, 0xff, 0xff, 0x08, 0x81, 0xff, 0xff, 0x0c, 0x81, 0xff, 0xff,
0x10, 0x81, 0xff, 0xff, 0x14, 0x81, 0xff, 0xff, 0x18, 0x81, 0xff, 0xff,
0x1c, 0x81, 0xff, 0xff, 0x20, 0x81, 0xff, 0xff, 0x24, 0x81, 0xff, 0xff,
0x28, 0x81, 0xff, 0xff, 0x2c, 0x81, 0xff, 0xff, 0x30, 0x81, 0xff, 0xff,
0x34, 0x81, 0xff, 0xff, 0x38, 0x81, 0xff, 0xff, 0x3c, 0x81, 0xff, 0xff,
0x40, 0x81, 0xff, 0xff, 0x44, 0x81, 0xff, 0xff, 0x48, 0x81, 0xff, 0xff,
0x4c, 0x81, 0xff, 0xff, 0x50, 0x81, 0xff, 0xff, 0x54, 0x81, 0xff, 0xff,
0x58, 0x81, 0xff, 0xff, 0x5c, 0x81, 0xff, 0xff, 0x60, 0x81, 0xff, 0xff,
0x64, 0x81, 0xff, 0xff, 0x68, 0x81, 0xff, 0xff, 0x6c, 0x81, 0xff, 0xff,
0x70, 0x81, 0xff, 0xff, 0x74, 0x81, 0xff, 0xff, 0x78, 0x81, 0xff, 0xff,
0x7c, 0x81, 0xff, 0xff, 0x80, 0x81, 0xff, 0xff, 0x84, 0x81, 0xff, 0xff,
0x88, 0x81, 0xff, 0xff, 0x8c, 0x81, 0xff, 0xff, 0x90, 0x81, 0xff, 0xff,
0x94, 0x81, 0xff, 0xff, 0x98, 0x81, 0xff, 0xff, 0x9c, 0x81, 0xff, 0xff,
0xa0, 0x81, 0xff, 0xff, 0xa4, 0x81, 0xff, 0xff, 0xa8, 0x81, 0xff, 0xff,
0xac, 0x81, 0xff, 0xff, 0xb0, 0x81, 0xff, 0xff, 0xb4, 0x81, 0xff, 0xff,
0xb8, 0x81, 0xff, 0xff, 0xbc, 0x81, 0xff, 0xff, 0xc0, 0x81, 0xff, 0xff,
0xc4, 0x81, 0xff, 0xff, 0xc8, 0x81, 0xff, 0xff, 0xcc, 0x81, 0xff, 0xff,
0xd0, 0x81, 0xff, 0xff, 0xd4, 0x81, 0xff, 0xff, 0xd8, 0x81, 0xff, 0xff,
0xdc, 0x81, 0xff, 0xff, 0xe0, 0x81, 0xff, 0xff, 0xe4, 0x81, 0xff, 0xff,
0xe8, 0x81, 0xff, 0xff, 0xec, 0x81, 0xff, 0xff, 0xf0, 0x81, 0xff, 0xff,
0xf4, 0x81, 0xff, 0xff, 0xf8, 0x81, 0xff, 0xff, 0xfc, 0x81, 0xff, 0xff,
0x00, 0x82, 0xff, 0xff, 0x04, 0x82, 0xff, 0xff, 0x08, 0x82, 0xff, 0xff,
0x0c, 0x82, 0xff, 0xff, 0x10, 0x82, 0xff, 0xff, 0x14, 0x82, 0xff, 0xff,
0x18, 0x82, 0xff, 0xff, 0x1c, 0x82, 0xff, 0xff, 0x20, 0x82, 0xff, 0xff,
0x24, 0x82, 0xff, 0xff, 0x28, 0x82, 0xff, 0xff, 0x2c, 0x82, 0xff, 0xff,
0xde, 0xf3, 0xff, 0xff, 0x04, 0x00, 0x00, 0x00, 0x6c, 0x00, 0x00, 0x00,
0xcd, 0x81, 0x03, 0x43, 0x13, 0xd1, 0xa4, 0xff, 0xf1, 0x9a, 0xe0, 0xed,
0x36, 0xb2, 0x08, 0x14, 0xfb, 0x95, 0x2f, 0x34, 0xea, 0x74, 0x43, 0x06,
0xbc, 0x0e, 0x7f, 0xed, 0xcd, 0x03, 0x18, 0xf7, 0x24, 0x39, 0xeb, 0xd4,
0xde, 0xdc, 0x5c, 0x0f, 0x17, 0xd8, 0xa9, 0x09, 0x2f, 0x30, 0xc2, 0x14,
0xef, 0xe5, 0xfa, 0x0d, 0x7f, 0x50, 0x81, 0xdf, 0x08, 0x6f, 0xfa, 0x60,
0x2b, 0xd9, 0x21, 0x2f, 0xb7, 0x4a, 0xfb, 0xfd, 0x13, 0xa9, 0xff, 0x31,
0x3c, 0x5d, 0x58, 0x7f, 0x07, 0x18, 0xd7, 0x27, 0x5a, 0x4d, 0x2f, 0x13,
0x14, 0x2d, 0x06, 0x11, 0x93, 0xdc, 0xd5, 0xed, 0x43, 0x1c, 0xfd, 0xae,
0xec, 0x09, 0x7f, 0x3d, 0x0a, 0x27, 0xea, 0x0a, 0xc7, 0x84, 0xf2, 0xc0,
0x56, 0xf4, 0xff, 0xff, 0x04, 0x00, 0x00, 0x00, 0x18, 0x00, 0x00, 0x00,
0xf5, 0x01, 0x00, 0x00, 0xfa, 0x00, 0x00, 0x00, 0xbf, 0xff, 0xff, 0xff,
0x18, 0xff, 0xff, 0xff, 0x67, 0x01, 0x00, 0x00, 0x56, 0x00, 0x00, 0x00,
0x7a, 0xf4, 0xff, 0xff, 0x04, 0x00, 0x00, 0x00, 0x6c, 0x00, 0x00, 0x00,
0x5b, 0xef, 0x38, 0x00, 0x81, 0x1f, 0x1e, 0xd9, 0x04, 0x05, 0x64, 0x4d,
0x1c, 0x25, 0x11, 0xfc, 0xf9, 0x13, 0xf6, 0x27, 0xc9, 0x5b, 0x1b, 0xfe,
0x81, 0xd3, 0x34, 0x8c, 0x90, 0x2b, 0x02, 0x3d, 0xf9, 0x6b, 0x1a, 0xdf,
0xe6, 0x7b, 0xab, 0x81, 0xdd, 0xc3, 0x0c, 0x3e, 0x5b, 0x52, 0xfb, 0xfd,
0x1c, 0x85, 0xda, 0xcc, 0xb7, 0x03, 0x27, 0xab, 0x7f, 0x67, 0xf9, 0xee,
0x9c, 0xea, 0x12, 0xe7, 0x0b, 0xee, 0x9d, 0x86, 0xff, 0x16, 0xf8, 0x7a,
0xbd, 0xba, 0x7f, 0x15, 0xfe, 0xe5, 0x0f, 0x29, 0x2b, 0x26, 0xd0, 0xdd,
0x0f, 0x8e, 0x2e, 0x06, 0xf7, 0xe3, 0xd3, 0x2d, 0xed, 0x1f, 0x3d, 0x33,
0xb8, 0xfb, 0x17, 0x9c, 0x81, 0xe4, 0x0a, 0xb9, 0x14, 0x61, 0x2e, 0x2d,
0xf2, 0xf4, 0xff, 0xff, 0x04, 0x00, 0x00, 0x00, 0x18, 0x00, 0x00, 0x00,
0x5a, 0x00, 0x00, 0x00, 0x28, 0x00, 0x00, 0x00, 0xee, 0xfe, 0xff, 0xff,
0x77, 0xff, 0xff, 0xff, 0x02, 0xff, 0xff, 0xff, 0xc1, 0xfe, 0xff, 0xff,
0x16, 0xf5, 0xff, 0xff, 0x04, 0x00, 0x00, 0x00, 0x6c, 0x00, 0x00, 0x00,
0x8b, 0x22, 0xe5, 0x68, 0x2b, 0xd5, 0xc7, 0xc7, 0x0e, 0xfd, 0x27, 0x5b,
0xa5, 0x87, 0x97, 0x3b, 0x7a, 0x7f, 0xbb, 0x02, 0x7f, 0x39, 0x91, 0xb0,
0xbf, 0x11, 0x2b, 0x6b, 0xc6, 0xdf, 0xad, 0x88, 0xf2, 0x9c, 0x75, 0xbc,
0xd0, 0x42, 0xde, 0x1b, 0x9d, 0xc1, 0xc5, 0x22, 0x1a, 0xdd, 0xb7, 0x92,
0x7f, 0x8b, 0x19, 0xf7, 0xeb, 0xfa, 0xd6, 0x7f, 0xd3, 0x46, 0xde, 0xe6,
0x8d, 0x19, 0xc4, 0x27, 0x8a, 0x01, 0xef, 0x24, 0x54, 0xa9, 0xed, 0x12,
0x0f, 0x60, 0x21, 0xd8, 0xfd, 0x3f, 0xbb, 0x42, 0x16, 0xff, 0x81, 0xce,
0xed, 0x0d, 0xc8, 0x70, 0x6c, 0xfa, 0xff, 0x2b, 0x0d, 0xcf, 0xe4, 0x0f,
0xc2, 0x14, 0x7e, 0x7f, 0x3d, 0x0e, 0x1a, 0x16, 0xfc, 0xfa, 0xe6, 0x4f,
0xe0, 0x83, 0xff, 0xff, 0xe4, 0x83, 0xff, 0xff, 0xe8, 0x83, 0xff, 0xff,
0xec, 0x83, 0xff, 0xff, 0xf0, 0x83, 0xff, 0xff, 0xf4, 0x83, 0xff, 0xff,
0xf8, 0x83, 0xff, 0xff, 0xfc, 0x83, 0xff, 0xff, 0x00, 0x84, 0xff, 0xff,
0xb2, 0xf5, 0xff, 0xff, 0x04, 0x00, 0x00, 0x00, 0x18, 0x00, 0x00, 0x00,
0x00, 0x00, 0x00, 0x00, 0x00, 0x00, 0x00, 0x00, 0x00, 0x00, 0x00, 0x00,
0x00, 0x00, 0x00, 0x00, 0x00, 0x00, 0x00, 0x00, 0x00, 0x00, 0x00, 0x00,
0xd6, 0xf5, 0xff, 0xff, 0x04, 0x00, 0x00, 0x00, 0x06, 0x00, 0x00, 0x00,
0x80, 0x93, 0x7f, 0xee, 0x8b, 0xdc, 0x00, 0x00, 0xea, 0xf5, 0xff, 0xff,
0x04, 0x00, 0x00, 0x00, 0x6c, 0x00, 0x00, 0x00, 0x74, 0x0a, 0x37, 0x2f,
0x00, 0x08, 0x4e, 0x2e, 0x43, 0x66, 0xc6, 0x02, 0x52, 0x25, 0x7f, 0x15,
0xba, 0xc7, 0xde, 0xcd, 0x3f, 0xfc, 0x2e, 0x84, 0x3d, 0x05, 0x00, 0x17,
0x0f, 0xa5, 0xb6, 0xaf, 0x4c, 0x81, 0x7d, 0xb2, 0xff, 0xeb, 0x9c, 0x81,
0xcd, 0x5a, 0x4f, 0x83, 0x72, 0xd9, 0x2b, 0x4b, 0xb5, 0xaf, 0x0c, 0xe5,
0x47, 0xff, 0xcf, 0x44, 0x5c, 0xd1, 0x7f, 0xe6, 0xeb, 0x4c, 0x50, 0x74,
0x1c, 0xf2, 0xc9, 0x01, 0xea, 0xc9, 0xaf, 0x17, 0x3a, 0x0f, 0xa6, 0xab,
0x13, 0x99, 0x81, 0xa0, 0x08, 0x1e, 0x1c, 0x08, 0xef, 0xda, 0xd4, 0x14,
0x40, 0x02, 0x35, 0x0f, 0xe8, 0x63, 0x7f, 0x98, 0xc6, 0x73, 0x4f, 0x2f,
0xfc, 0xc7, 0xd2, 0xe1, 0x32, 0x4a, 0x13, 0x10, 0x62, 0xf6, 0xff, 0xff,
0x04, 0x00, 0x00, 0x00, 0x06, 0x00, 0x00, 0x00, 0xce, 0x7f, 0xba, 0x80,
0xab, 0xd3, 0x00, 0x00, 0x76, 0xf6, 0xff, 0xff, 0x04, 0x00, 0x00, 0x00,
0x6c, 0x00, 0x00, 0x00, 0x37, 0x4f, 0xbb, 0xeb, 0xe9, 0x48, 0x43, 0x34,
0x81, 0xfd, 0x5a, 0x15, 0x24, 0xf2, 0xb6, 0xf8, 0x51, 0x07, 0xed, 0x1d,
0x1f, 0xb6, 0x38, 0x88, 0x81, 0xee, 0x2c, 0xea, 0x67, 0x10, 0xe1, 0xee,
0x16, 0xbf, 0xfa, 0xf6, 0xbf, 0x27, 0xc8, 0x0d, 0xe7, 0x02, 0x05, 0xf4,
0x13, 0x23, 0x81, 0xba, 0xfb, 0x1f, 0x82, 0x0e, 0xec, 0xa1, 0xde, 0xf5,
0x7f, 0xe4, 0xa0, 0x5a, 0xe3, 0xc5, 0x0a, 0x39, 0x3d, 0x5a, 0xcd, 0xef,
0x3c, 0xda, 0x53, 0xa6, 0xca, 0x21, 0xfc, 0xfb, 0xc0, 0xf0, 0xed, 0x47,
0x91, 0xd5, 0xd5, 0x1d, 0xf3, 0xe9, 0xbc, 0xfc, 0x23, 0x81, 0x30, 0x2d,
0xde, 0x1c, 0x63, 0x3a, 0x48, 0x39, 0xc6, 0x06, 0xf8, 0xd2, 0xfd, 0x14,
0xbc, 0x41, 0x7f, 0x55, 0xee, 0xf6, 0xff, 0xff, 0x04, 0x00, 0x00, 0x00,
0x06, 0x00, 0x00, 0x00, 0xeb, 0xfc, 0x7f, 0x80, 0xe0, 0xf7, 0x00, 0x00,
0x02, 0xf7, 0xff, 0xff, 0x04, 0x00, 0x00, 0x00, 0x6c, 0x00, 0x00, 0x00,
0xd3, 0xfd, 0xc0, 0x09, 0xef, 0x03, 0x46, 0xf8, 0x47, 0x05, 0x07, 0x0e,
0x5f, 0x7f, 0x0f, 0xff, 0x15, 0x17, 0x50, 0xd7, 0xfc, 0x7e, 0xe6, 0x7f,
0x05, 0xb1, 0x35, 0xbb, 0x27, 0x46, 0xe1, 0xab, 0xfc, 0xaf, 0xca, 0xe4,
0xcd, 0x6f, 0x84, 0x82, 0x0f, 0x31, 0x81, 0xf3, 0xe8, 0xf7, 0x20, 0x43,
0xfb, 0x11, 0xed, 0x82, 0xfe, 0x0e, 0x19, 0x3a, 0x66, 0x5b, 0xcd, 0xb0,
0xc0, 0xe9, 0x7f, 0xb8, 0xd3, 0x81, 0x36, 0x0b, 0xc7, 0x1e, 0x3a, 0x0e,
0x1b, 0x7c, 0x5c, 0x31, 0xb4, 0x78, 0xd3, 0x7f, 0x26, 0xa0, 0xff, 0x05,
0xcc, 0x51, 0xdd, 0xac, 0xb9, 0xf4, 0xe6, 0xf8, 0xda, 0x48, 0x10, 0x44,
0x36, 0x69, 0x6e, 0x24, 0x81, 0x28, 0x8f, 0x2b, 0xb1, 0x89, 0x77, 0x70,
0x7a, 0xf7, 0xff, 0xff, 0x04, 0x00, 0x00, 0x00, 0x06, 0x00, 0x00, 0x00,
0xe7, 0xd2, 0x6d, 0x80, 0x7f, 0x1f, 0x00, 0x00, 0x8e, 0xf7, 0xff, 0xff,
0x04, 0x00, 0x00, 0x00, 0x6c, 0x00, 0x00, 0x00, 0x65, 0x27, 0xeb, 0x24,
0x3b, 0xf5, 0x5d, 0xf2, 0x51, 0xde, 0x2d, 0xde, 0x40, 0x09, 0xf5, 0x20,
0x81, 0x32, 0xe2, 0x0d, 0x0c, 0x2c, 0x04, 0xec, 0xa7, 0xdc, 0x06, 0xcf,
0x30, 0xe7, 0x81, 0x45, 0xb6, 0xec, 0xbe, 0xa6, 0xf2, 0xc9, 0x63, 0x8c,
0x46, 0x93, 0xe4, 0x19, 0x5c, 0xf1, 0x45, 0x44, 0xab, 0x58, 0xb9, 0x2e,
0x17, 0x81, 0x90, 0xe3, 0x7f, 0x03, 0x46, 0xf6, 0xae, 0x9e, 0x02, 0x45,
0x19, 0xe5, 0x46, 0x67, 0xa3, 0x36, 0xfa, 0xc4, 0xcc, 0x29, 0xc0, 0x0a,
0x7f, 0x37, 0xa8, 0x9e, 0x90, 0x12, 0xcc, 0xf2, 0x1f, 0xf2, 0x5e, 0x54,
0x27, 0x2c, 0xed, 0xc4, 0xf8, 0xdd, 0xc0, 0xf6, 0x81, 0x45, 0x31, 0xf2,
0xfb, 0x10, 0x44, 0x1e, 0xdd, 0x20, 0x34, 0x31, 0x06, 0xf8, 0xff, 0xff,
0x04, 0x00, 0x00, 0x00, 0x06, 0x00, 0x00, 0x00, 0xf4, 0xf9, 0x1b, 0x80,
0x73, 0x7f, 0x00, 0x00, 0x1a, 0xf8, 0xff, 0xff, 0x04, 0x00, 0x00, 0x00,
0x6c, 0x00, 0x00, 0x00, 0x8c, 0x20, 0xeb, 0xb9, 0xfd, 0x2f, 0xa7, 0xe2,
0x81, 0xd7, 0x1d, 0xe5, 0xb6, 0x36, 0xb7, 0xf2, 0x00, 0xf0, 0x96, 0x06,
0xb2, 0x7f, 0x13, 0xf7, 0xee, 0x09, 0x33, 0x22, 0x6b, 0x14, 0x9d, 0xc1,
0xbf, 0x5c, 0xc6, 0xfa, 0xfa, 0xb6, 0xdd, 0xdb, 0x81, 0x0d, 0xe0, 0xc1,
0x10, 0x07, 0x88, 0x11, 0x24, 0x26, 0xba, 0xea, 0xa4, 0x23, 0xc9, 0x42,
0x4c, 0xf4, 0xae, 0xfc, 0x05, 0x07, 0x34, 0xb1, 0xa5, 0x4c, 0x1a, 0x81,
0xbb, 0xf2, 0xab, 0x23, 0x46, 0xf3, 0x3b, 0xcf, 0xf5, 0xda, 0xfa, 0xc3,
0x71, 0xf0, 0xf3, 0x81, 0x55, 0xf2, 0xd5, 0x62, 0x05, 0xad, 0x25, 0x30,
0x36, 0xdd, 0xc5, 0x8e, 0x83, 0xdc, 0x85, 0x18, 0x81, 0x46, 0x77, 0x9d,
0xaa, 0xec, 0x04, 0x11, 0x92, 0xf8, 0xff, 0xff, 0x04, 0x00, 0x00, 0x00,
0x06, 0x00, 0x00, 0x00, 0x7f, 0x95, 0x3a, 0x80, 0x60, 0x3d, 0x00, 0x00,
0xa6, 0xf8, 0xff, 0xff, 0x04, 0x00, 0x00, 0x00, 0x6c, 0x00, 0x00, 0x00,
0x98, 0xfb, 0x0f, 0xd9, 0xbc, 0x50, 0x7f, 0xdb, 0xfb, 0x0d, 0x92, 0x93,
0xdb, 0xd6, 0x04, 0x1c, 0x4e, 0xac, 0xf0, 0xe9, 0x7f, 0x4c, 0x07, 0x28,
0xd9, 0x1b, 0x8d, 0x8b, 0xdc, 0x49, 0xd2, 0xcd, 0x22, 0x3e, 0x4a, 0x7f,
0xfa, 0x2c, 0x41, 0x7d, 0x54, 0x58, 0x48, 0x7f, 0x42, 0x00, 0x58, 0x05,
0x5f, 0x4b, 0x02, 0xb1, 0x0a, 0x03, 0xfa, 0xe2, 0x40, 0x57, 0xd9, 0xf6,
0x9d, 0xc4, 0x59, 0xd3, 0xfc, 0x30, 0x5c, 0x59, 0x2c, 0x4b, 0xf5, 0x81,
0xaa, 0x31, 0x18, 0x5d, 0x14, 0x81, 0xbd, 0x1c, 0xaa, 0x53, 0x16, 0x99,
0xa0, 0x34, 0x28, 0xfe, 0x82, 0xee, 0xeb, 0x89, 0x78, 0x2e, 0xdc, 0x1c,
0xc6, 0x81, 0xfd, 0x4d, 0x7d, 0x17, 0x15, 0x70, 0x73, 0x57, 0xc5, 0xd0,
0x1e, 0xf9, 0xff, 0xff, 0x04, 0x00, 0x00, 0x00, 0x06, 0x00, 0x00, 0x00,
0x9f, 0x7f, 0x93, 0x80, 0x99, 0x0c, 0x00, 0x00, 0x32, 0xf9, 0xff, 0xff,
0x04, 0x00, 0x00, 0x00, 0x6c, 0x00, 0x00, 0x00, 0xe9, 0x52, 0xf6, 0xea,
0xfc, 0xd4, 0xfa, 0xd5, 0xc3, 0x20, 0x7f, 0xbe, 0xea, 0x4c, 0x6d, 0xfe,
0x1c, 0x35, 0x81, 0xd0, 0xc1, 0xfd, 0xa0, 0xfc, 0x22, 0xc1, 0x24, 0x04,
0x1a, 0xc2, 0x06, 0x05, 0x66, 0xe8, 0x28, 0x95, 0xf9, 0x6c, 0x7f, 0xe6,
0x23, 0x44, 0x3d, 0x38, 0xc3, 0xf0, 0xc4, 0xac, 0xf7, 0xea, 0xa7, 0x58,
0xe2, 0xf0, 0xe1, 0x92, 0x86, 0x92, 0x2b, 0x9d, 0x70, 0xc4, 0xf4, 0x45,
0x1a, 0xe4, 0x81, 0x46, 0x1c, 0xfe, 0x15, 0x66, 0xef, 0x15, 0x18, 0xad,
0xf2, 0xde, 0xee, 0x03, 0x91, 0xba, 0x81, 0x4d, 0x3f, 0xee, 0x3d, 0x75,
0xd9, 0xb3, 0xd5, 0x81, 0xe2, 0x69, 0xdd, 0xdc, 0xe9, 0xbd, 0x56, 0x4e,
0xcc, 0x2b, 0xea, 0xfa, 0xb2, 0xc6, 0xda, 0x55, 0xaa, 0xf9, 0xff, 0xff,
0x04, 0x00, 0x00, 0x00, 0x06, 0x00, 0x00, 0x00, 0x69, 0x97, 0x2b, 0x26,
0x7f, 0x80, 0x00, 0x00, 0xbe, 0xf9, 0xff, 0xff, 0x04, 0x00, 0x00, 0x00,
0x6c, 0x00, 0x00, 0x00, 0x07, 0x32, 0xe1, 0xc7, 0x89, 0x1d, 0x42, 0xed,
0x7f, 0x65, 0x42, 0xcc, 0xfb, 0x5f, 0xa1, 0x8d, 0x81, 0x5a, 0x0e, 0x22,
0x7f, 0x59, 0xd0, 0x56, 0xec, 0xeb, 0xc2, 0x32, 0xcc, 0xb6, 0xb1, 0x26,
0xc9, 0x0d, 0xe1, 0x48, 0x1e, 0x16, 0x0c, 0x81, 0x97, 0xde, 0x38, 0xb2,
0xdb, 0x42, 0xe1, 0xee, 0xe4, 0xa0, 0xa4, 0xa7, 0x4a, 0x4c, 0x81, 0xdb,
0xa1, 0x12, 0xe9, 0xcb, 0x35, 0x19, 0xc2, 0x56, 0xf8, 0xfa, 0xfb, 0x55,
0x1d, 0x6f, 0xd4, 0x47, 0x02, 0x81, 0xb1, 0x2e, 0x23, 0xd1, 0xfc, 0x3d,
0xc3, 0x66, 0x69, 0xd0, 0x3e, 0xe4, 0xe1, 0x07, 0x64, 0x20, 0x18, 0xd4,
0xf5, 0xeb, 0xed, 0x9b, 0xef, 0x7f, 0x39, 0xf5, 0x4c, 0x1d, 0xdb, 0x65,
0xb2, 0x11, 0x1c, 0x01, 0x36, 0xfa, 0xff, 0xff, 0x04, 0x00, 0x00, 0x00,
0x06, 0x00, 0x00, 0x00, 0x50, 0x92, 0x80, 0x92, 0x7f, 0xf4, 0x00, 0x00,
0x4a, 0xfa, 0xff, 0xff, 0x04, 0x00, 0x00, 0x00, 0x6c, 0x00, 0x00, 0x00,
0x79, 0xbf, 0x47, 0x4a, 0x0d, 0xd5, 0x00, 0x97, 0xdf, 0x05, 0x57, 0x07,
0x6c, 0x26, 0xed, 0x7f, 0x06, 0x05, 0xbd, 0x01, 0x3c, 0xcb, 0xe8, 0x65,
0xdb, 0xcf, 0x7e, 0x14, 0x06, 0xf1, 0xdf, 0x65, 0x44, 0xc4, 0x7f, 0xf5,
0xe6, 0xc0, 0x1e, 0x81, 0x10, 0x88, 0xae, 0xf1, 0xb2, 0x0a, 0xad, 0x6b,
0xe9, 0xe9, 0x93, 0xf8, 0xd0, 0x2b, 0x7f, 0x22, 0x41, 0xce, 0x18, 0xe1,
0xa2, 0x40, 0x40, 0x5c, 0xfb, 0x53, 0xe5, 0x3d, 0xc7, 0x02, 0xdd, 0xb3,
0xdc, 0xcc, 0x7f, 0x65, 0xec, 0xf7, 0x43, 0x78, 0xfe, 0x5f, 0x45, 0xe5,
0x22, 0x01, 0x40, 0x59, 0xbd, 0xae, 0x36, 0xe6, 0x1f, 0xcd, 0x51, 0x6e,
0xd9, 0xc3, 0xb5, 0xf6, 0xfa, 0xe0, 0x7f, 0x90, 0xd5, 0x0f, 0xbf, 0xd9,
0xc2, 0xfa, 0xff, 0xff, 0x04, 0x00, 0x00, 0x00, 0x06, 0x00, 0x00, 0x00,
0x7f, 0x8c, 0x80, 0xbc, 0x84, 0x75, 0x00, 0x00, 0xd6, 0xfa, 0xff, 0xff,
0x04, 0x00, 0x00, 0x00, 0x48, 0x00, 0x00, 0x00, 0x07, 0x40, 0x0e, 0xe6,
0xe9, 0x7f, 0x71, 0x4b, 0x65, 0xf2, 0x81, 0x5a, 0x4b, 0x6f, 0x81, 0xaa,
0x21, 0xfc, 0x3b, 0xde, 0x07, 0x81, 0x28, 0xb8, 0xd4, 0x6d, 0x81, 0xbe,
0x3c, 0xfd, 0x8d, 0xf1, 0x81, 0x59, 0xac, 0xbb, 0x95, 0x81, 0x23, 0x2b,
0x74, 0xfc, 0x7f, 0x91, 0x0f, 0x19, 0x3d, 0xee, 0x45, 0xd5, 0xc9, 0x7a,
0xc5, 0x81, 0x9b, 0xae, 0xc0, 0x7f, 0x9e, 0xb2, 0x18, 0xa1, 0xe4, 0x81,
0xa3, 0x00, 0xd4, 0x7f, 0x65, 0x68, 0x95, 0x3c, 0x2a, 0xfb, 0xff, 0xff,
0x04, 0x00, 0x00, 0x00, 0x30, 0x00, 0x00, 0x00, 0xd3, 0xff, 0xff, 0xff,
0xd4, 0xff, 0xff, 0xff, 0xcd, 0xff, 0xff, 0xff, 0xd1, 0xff, 0xff, 0xff,
0xde, 0xff, 0xff, 0xff, 0xba, 0xff, 0xff, 0xff, 0xd3, 0xff, 0xff, 0xff,
0xc1, 0x00, 0x00, 0x00, 0x91, 0xff, 0xff, 0xff, 0x51, 0x00, 0x00, 0x00,
0x0a, 0x00, 0x00, 0x00, 0xd1, 0xff, 0xff, 0xff, 0x66, 0xfb, 0xff, 0xff,
0x04, 0x00, 0x00, 0x00, 0x3c, 0x00, 0x00, 0x00, 0x7f, 0xfd, 0x90, 0xc0,
0xb1, 0x9d, 0xaa, 0x76, 0xfb, 0x3c, 0x0f, 0x10, 0x97, 0xbe, 0xf1, 0xb4,
0x3a, 0xe8, 0xcb, 0x7f, 0x90, 0x79, 0xdc, 0xc7, 0x5c, 0xe5, 0xbb, 0x02,
0x44, 0xf9, 0xb9, 0xe8, 0xe9, 0xeb, 0x81, 0x50, 0x22, 0x1b, 0x66, 0x0b,
0x7f, 0x57, 0x1c, 0xcc, 0xbe, 0xfd, 0x38, 0xfe, 0x24, 0x81, 0x00, 0x58,
0xb0, 0xb8, 0x4d, 0xdf, 0xea, 0x79, 0x26, 0x46, 0xae, 0xfb, 0xff, 0xff,
0x04, 0x00, 0x00, 0x00, 0x14, 0x00, 0x00, 0x00, 0xbd, 0xff, 0xff, 0xff,
0xad, 0x02, 0x00, 0x00, 0xa8, 0x00, 0x00, 0x00, 0x7b, 0xfd, 0xff, 0xff,
0x7d, 0xff, 0xff, 0xff, 0xce, 0xfb, 0xff, 0xff, 0x04, 0x00, 0x00, 0x00,
0x0c, 0x00, 0x00, 0x00, 0x01, 0x00, 0x00, 0x00, 0x01, 0x00, 0x00, 0x00,
0x01, 0x00, 0x00, 0x00, 0xe6, 0xfb, 0xff, 0xff, 0x04, 0x00, 0x00, 0x00,
0x0c, 0x00, 0x00, 0x00, 0x00, 0x00, 0x00, 0x00, 0x00, 0x00, 0x00, 0x00,
0x00, 0x00, 0x00, 0x00, 0xfe, 0xfb, 0xff, 0xff, 0x04, 0x00, 0x00, 0x00,
0x0c, 0x00, 0x00, 0x00, 0x00, 0x00, 0x00, 0x00, 0xff, 0xff, 0xff, 0xff,
0x00, 0x00, 0x00, 0x00, 0x16, 0xfc, 0xff, 0xff, 0x04, 0x00, 0x00, 0x00,
0x0c, 0x00, 0x00, 0x00, 0xff, 0xff, 0xff, 0xff, 0x09, 0x00, 0x00, 0x00,
0x06, 0x00, 0x00, 0x00, 0x2e, 0xfc, 0xff, 0xff, 0x04, 0x00, 0x00, 0x00,
0x08, 0x00, 0x00, 0x00, 0x00, 0x00, 0x00, 0x00, 0x18, 0x00, 0x00, 0x00,
0x42, 0xfc, 0xff, 0xff, 0x04, 0x00, 0x00, 0x00, 0x04, 0x00, 0x00, 0x00,
0x20, 0x00, 0x00, 0x00, 0x52, 0xfc, 0xff, 0xff, 0x04, 0x00, 0x00, 0x00,
0x18, 0x00, 0x00, 0x00, 0x00, 0x00, 0x00, 0x00, 0x00, 0x00, 0x00, 0x00,
0x40, 0x00, 0x00, 0x00, 0x00, 0x00, 0x00, 0x00, 0x00, 0x00, 0x00, 0x00,
0x00, 0x00, 0x00, 0x00, 0x76, 0xfc, 0xff, 0xff, 0x04, 0x00, 0x00, 0x00,
0x0c, 0x00, 0x00, 0x00, 0xff, 0xff, 0xff, 0xff, 0x11, 0x00, 0x00, 0x00,
0x06, 0x00, 0x00, 0x00, 0x8e, 0xfc, 0xff, 0xff, 0x04, 0x00, 0x00, 0x00,
0x08, 0x00, 0x00, 0x00, 0x00, 0x00, 0x00, 0x00, 0x08, 0x00, 0x00, 0x00,
0xa2, 0xfc, 0xff, 0xff, 0x04, 0x00, 0x00, 0x00, 0x04, 0x00, 0x00, 0x00,
0x10, 0x00, 0x00, 0x00, 0xb2, 0xfc, 0xff, 0xff, 0x04, 0x00, 0x00, 0x00,
0x18, 0x00, 0x00, 0x00, 0x00, 0x00, 0x00, 0x00, 0x00, 0x00, 0x00, 0x00,
0x20, 0x00, 0x00, 0x00, 0x00, 0x00, 0x00, 0x00, 0x00, 0x00, 0x00, 0x00,
0x00, 0x00, 0x00, 0x00, 0xd6, 0xfc, 0xff, 0xff, 0x04, 0x00, 0x00, 0x00,
0x0c, 0x00, 0x00, 0x00, 0xff, 0xff, 0xff, 0xff, 0x21, 0x00, 0x00, 0x00,
0x06, 0x00, 0x00, 0x00, 0xee, 0xfc, 0xff, 0xff, 0x04, 0x00, 0x00, 0x00,
0x04, 0x00, 0x00, 0x00, 0x08, 0x00, 0x00, 0x00, 0xfe, 0xfc, 0xff, 0xff,
0x04, 0x00, 0x00, 0x00, 0x18, 0x00, 0x00, 0x00, 0x00, 0x00, 0x00, 0x00,
0x00, 0x00, 0x00, 0x00, 0x10, 0x00, 0x00, 0x00, 0x00, 0x00, 0x00, 0x00,
0x00, 0x00, 0x00, 0x00, 0x00, 0x00, 0x00, 0x00, 0x22, 0xfd, 0xff, 0xff,
0x04, 0x00, 0x00, 0x00, 0x0c, 0x00, 0x00, 0x00, 0xff, 0xff, 0xff, 0xff,
0x42, 0x00, 0x00, 0x00, 0x06, 0x00, 0x00, 0x00, 0x3a, 0xfd, 0xff, 0xff,
0x04, 0x00, 0x00, 0x00, 0x04, 0x00, 0x00, 0x00, 0x04, 0x00, 0x00, 0x00,
0x4a, 0xfd, 0xff, 0xff, 0x04, 0x00, 0x00, 0x00, 0x18, 0x00, 0x00, 0x00,
0x00, 0x00, 0x00, 0x00, 0x00, 0x00, 0x00, 0x00, 0x08, 0x00, 0x00, 0x00,
0x00, 0x00, 0x00, 0x00, 0x00, 0x00, 0x00, 0x00, 0x00, 0x00, 0x00, 0x00,
0x6e, 0xfd, 0xff, 0xff, 0x04, 0x00, 0x00, 0x00, 0x0c, 0x00, 0x00, 0x00,
0xff, 0xff, 0xff, 0xff, 0x84, 0x00, 0x00, 0x00, 0x06, 0x00, 0x00, 0x00,
0x86, 0xfd, 0xff, 0xff, 0x04, 0x00, 0x00, 0x00, 0x08, 0x00, 0x00, 0x00,
0x00, 0x00, 0x00, 0x00, 0x00, 0x00, 0x00, 0x00, 0x9a, 0xfd, 0xff, 0xff,
0x04, 0x00, 0x00, 0x00, 0x04, 0x00, 0x00, 0x00, 0x02, 0x00, 0x00, 0x00,
0xaa, 0xfd, 0xff, 0xff, 0x04, 0x00, 0x00, 0x00, 0x18, 0x00, 0x00, 0x00,
0x00, 0x00, 0x00, 0x00, 0x00, 0x00, 0x00, 0x00, 0x04, 0x00, 0x00, 0x00,
0x00, 0x00, 0x00, 0x00, 0x00, 0x00, 0x00, 0x00, 0x00, 0x00, 0x00, 0x00,
0xce, 0xfd, 0xff, 0xff, 0x04, 0x00, 0x00, 0x00, 0x0c, 0x00, 0x00, 0x00,
0xff, 0xff, 0xff, 0xff, 0x08, 0x01, 0x00, 0x00, 0x06, 0x00, 0x00, 0x00,
0xe6, 0xfd, 0xff, 0xff, 0x04, 0x00, 0x00, 0x00, 0x04, 0x00, 0x00, 0x00,
0xfd, 0xff, 0xff, 0xff, 0xf6, 0xfd, 0xff, 0xff, 0x04, 0x00, 0x00, 0x00,
0x18, 0x00, 0x00, 0x00, 0x00, 0x00, 0x00, 0x00, 0x00, 0x00, 0x00, 0x00,
0x02, 0x00, 0x00, 0x00, 0x00, 0x00, 0x00, 0x00, 0x00, 0x00, 0x00, 0x00,
0x00, 0x00, 0x00, 0x00, 0x6c, 0x8c, 0xff, 0xff, 0x70, 0x8c, 0xff, 0xff,
0x0f, 0x00, 0x00, 0x00, 0x4d, 0x4c, 0x49, 0x52, 0x20, 0x43, 0x6f, 0x6e,
0x76, 0x65, 0x72, 0x74, 0x65, 0x64, 0x2e, 0x00, 0x01, 0x00, 0x00, 0x00,
0x14, 0x00, 0x00, 0x00, 0x00, 0x00, 0x0e, 0x00, 0x18, 0x00, 0x14, 0x00,
0x10, 0x00, 0x0c, 0x00, 0x08, 0x00, 0x04, 0x00, 0x0e, 0x00, 0x00, 0x00,
0x14, 0x00, 0x00, 0x00, 0x1c, 0x00, 0x00, 0x00, 0xf4, 0x12, 0x00, 0x00,
0xf8, 0x12, 0x00, 0x00, 0xfc, 0x12, 0x00, 0x00, 0x04, 0x00, 0x00, 0x00,
0x6d, 0x61, 0x69, 0x6e, 0x00, 0x00, 0x00, 0x00, 0x5c, 0x00, 0x00, 0x00,
0xac, 0x12, 0x00, 0x00, 0x68, 0x12, 0x00, 0x00, 0x04, 0x12, 0x00, 0x00,
0xdc, 0x11, 0x00, 0x00, 0xa0, 0x11, 0x00, 0x00, 0x6c, 0x11, 0x00, 0x00,
0x24, 0x11, 0x00, 0x00, 0xfc, 0x10, 0x00, 0x00, 0xbc, 0x10, 0x00, 0x00,
0x8c, 0x10, 0x00, 0x00, 0x60, 0x10, 0x00, 0x00, 0x2c, 0x10, 0x00, 0x00,
0xdc, 0x0f, 0x00, 0x00, 0xb4, 0x0f, 0x00, 0x00, 0x88, 0x0f, 0x00, 0x00,
0x50, 0x0f, 0x00, 0x00, 0x20, 0x0f, 0x00, 0x00, 0xf4, 0x0e, 0x00, 0x00,
0xc0, 0x0e, 0x00, 0x00, 0x7c, 0x0e, 0x00, 0x00, 0x54, 0x0e, 0x00, 0x00,
0x28, 0x0e, 0x00, 0x00, 0xf0, 0x0d, 0x00, 0x00, 0xbc, 0x0d, 0x00, 0x00,
0x84, 0x0d, 0x00, 0x00, 0x54, 0x0d, 0x00, 0x00, 0x28, 0x0d, 0x00, 0x00,
0xf4, 0x0c, 0x00, 0x00, 0xb0, 0x0c, 0x00, 0x00, 0x88, 0x0c, 0x00, 0x00,
0x5c, 0x0c, 0x00, 0x00, 0x24, 0x0c, 0x00, 0x00, 0xf4, 0x0b, 0x00, 0x00,
0xc8, 0x0b, 0x00, 0x00, 0x94, 0x0b, 0x00, 0x00, 0x50, 0x0b, 0x00, 0x00,
0x28, 0x0b, 0x00, 0x00, 0xfc, 0x0a, 0x00, 0x00, 0xc4, 0x0a, 0x00, 0x00,
0x90, 0x0a, 0x00, 0x00, 0x58, 0x0a, 0x00, 0x00, 0x28, 0x0a, 0x00, 0x00,
0xfc, 0x09, 0x00, 0x00, 0xc8, 0x09, 0x00, 0x00, 0x84, 0x09, 0x00, 0x00,
0x5c, 0x09, 0x00, 0x00, 0x30, 0x09, 0x00, 0x00, 0xf8, 0x08, 0x00, 0x00,
0xc8, 0x08, 0x00, 0x00, 0x9c, 0x08, 0x00, 0x00, 0x68, 0x08, 0x00, 0x00,
0x24, 0x08, 0x00, 0x00, 0xfc, 0x07, 0x00, 0x00, 0xd0, 0x07, 0x00, 0x00,
0x98, 0x07, 0x00, 0x00, 0x64, 0x07, 0x00, 0x00, 0x2c, 0x07, 0x00, 0x00,
0xfc, 0x06, 0x00, 0x00, 0xd0, 0x06, 0x00, 0x00, 0x9c, 0x06, 0x00, 0x00,
0x58, 0x06, 0x00, 0x00, 0x30, 0x06, 0x00, 0x00, 0x04, 0x06, 0x00, 0x00,
0xcc, 0x05, 0x00, 0x00, 0x9c, 0x05, 0x00, 0x00, 0x70, 0x05, 0x00, 0x00,
0x3c, 0x05, 0x00, 0x00, 0xf8, 0x04, 0x00, 0x00, 0xd0, 0x04, 0x00, 0x00,
0xa4, 0x04, 0x00, 0x00, 0x6c, 0x04, 0x00, 0x00, 0x38, 0x04, 0x00, 0x00,
0x00, 0x04, 0x00, 0x00, 0xd0, 0x03, 0x00, 0x00, 0xa4, 0x03, 0x00, 0x00,
0x70, 0x03, 0x00, 0x00, 0x2c, 0x03, 0x00, 0x00, 0x04, 0x03, 0x00, 0x00,
0xd8, 0x02, 0x00, 0x00, 0xa0, 0x02, 0x00, 0x00, 0x70, 0x02, 0x00, 0x00,
0x44, 0x02, 0x00, 0x00, 0x10, 0x02, 0x00, 0x00, 0xcc, 0x01, 0x00, 0x00,
0xa4, 0x01, 0x00, 0x00, 0x78, 0x01, 0x00, 0x00, 0x40, 0x01, 0x00, 0x00,
0x0c, 0x01, 0x00, 0x00, 0xb4, 0x00, 0x00, 0x00, 0x78, 0x00, 0x00, 0x00,
0x40, 0x00, 0x00, 0x00, 0x04, 0x00, 0x00, 0x00, 0x12, 0xef, 0xff, 0xff,
0x1c, 0x00, 0x00, 0x00, 0x00, 0x00, 0x00, 0x09, 0x1c, 0x00, 0x00, 0x00,
0x20, 0x00, 0x00, 0x00, 0x09, 0x00, 0x00, 0x00, 0x00, 0x00, 0x06, 0x00,
0x08, 0x00, 0x04, 0x00, 0x06, 0x00, 0x00, 0x00, 0x00, 0x00, 0x80, 0x3f,
0x01, 0x00, 0x00, 0x00, 0x9a, 0x00, 0x00, 0x00, 0x01, 0x00, 0x00, 0x00,
0x99, 0x00, 0x00, 0x00, 0x4a, 0xef, 0xff, 0xff, 0x14, 0x00, 0x00, 0x00,
0x00, 0x00, 0x00, 0x08, 0x10, 0x00, 0x00, 0x00, 0x14, 0x00, 0x00, 0x00,
0x08, 0x00, 0x00, 0x00, 0x88, 0x8e, 0xff, 0xff, 0x01, 0x00, 0x00, 0x00,
0x99, 0x00, 0x00, 0x00, 0x03, 0x00, 0x00, 0x00, 0x98, 0x00, 0x00, 0x00,
0x1a, 0x00, 0x00, 0x00, 0x19, 0x00, 0x00, 0x00, 0x7e, 0xef, 0xff, 0xff,
0x14, 0x00, 0x00, 0x00, 0x00, 0x00, 0x00, 0x08, 0x14, 0x00, 0x00, 0x00,
0x18, 0x00, 0x00, 0x00, 0x08, 0x00, 0x00, 0x00, 0xfe, 0xf0, 0xff, 0xff,
0x00, 0x00, 0x00, 0x01, 0x01, 0x00, 0x00, 0x00, 0x98, 0x00, 0x00, 0x00,
0x03, 0x00, 0x00, 0x00, 0x97, 0x00, 0x00, 0x00, 0x1c, 0x00, 0x00, 0x00,
0x1b, 0x00, 0x00, 0x00, 0xb6, 0xef, 0xff, 0xff, 0x24, 0x00, 0x00, 0x00,
0x00, 0x00, 0x00, 0x20, 0x2c, 0x00, 0x00, 0x00, 0x30, 0x00, 0x00, 0x00,
0x07, 0x00, 0x00, 0x00, 0x00, 0x00, 0x0e, 0x00, 0x10, 0x00, 0x0c, 0x00,
0x08, 0x00, 0x00, 0x00, 0x00, 0x00, 0x04, 0x00, 0x0e, 0x00, 0x00, 0x00,
0x02, 0x00, 0x00, 0x00, 0x05, 0x00, 0x00, 0x00, 0x05, 0x00, 0x00, 0x00,
0x01, 0x00, 0x00, 0x00, 0x97, 0x00, 0x00, 0x00, 0x04, 0x00, 0x00, 0x00,
0x96, 0x00, 0x00, 0x00, 0x16, 0x00, 0x00, 0x00, 0x17, 0x00, 0x00, 0x00,
0x18, 0x00, 0x00, 0x00, 0x0a, 0xf0, 0xff, 0xff, 0x14, 0x00, 0x00, 0x00,
0x00, 0x00, 0x00, 0x0b, 0x10, 0x00, 0x00, 0x00, 0x14, 0x00, 0x00, 0x00,
0x04, 0x00, 0x00, 0x00, 0x48, 0x8f, 0xff, 0xff, 0x01, 0x00, 0x00, 0x00,
0x96, 0x00, 0x00, 0x00, 0x02, 0x00, 0x00, 0x00, 0x86, 0x00, 0x00, 0x00,
0x95, 0x00, 0x00, 0x00, 0x3a, 0xf0, 0xff, 0xff, 0x14, 0x00, 0x00, 0x00,
0x00, 0x00, 0x00, 0x0b, 0x14, 0x00, 0x00, 0x00, 0x18, 0x00, 0x00, 0x00,
0x04, 0x00, 0x00, 0x00, 0xba, 0xf1, 0xff, 0xff, 0x00, 0x00, 0x00, 0x01,
0x01, 0x00, 0x00, 0x00, 0x95, 0x00, 0x00, 0x00, 0x02, 0x00, 0x00, 0x00,
0x94, 0x00, 0x00, 0x00, 0x1d, 0x00, 0x00, 0x00, 0xee, 0xf0, 0xff, 0xff,
0x0c, 0x00, 0x00, 0x00, 0x10, 0x00, 0x00, 0x00, 0x06, 0x00, 0x00, 0x00,
0x01, 0x00, 0x00, 0x00, 0x94, 0x00, 0x00, 0x00, 0x03, 0x00, 0x00, 0x00,
0x93, 0x00, 0x00, 0x00, 0x13, 0x00, 0x00, 0x00, 0x14, 0x00, 0x00, 0x00,
0x16, 0xf1, 0xff, 0xff, 0x0c, 0x00, 0x00, 0x00, 0x10, 0x00, 0x00, 0x00,
0x03, 0x00, 0x00, 0x00, 0x01, 0x00, 0x00, 0x00, 0x93, 0x00, 0x00, 0x00,
0x02, 0x00, 0x00, 0x00, 0x92, 0x00, 0x00, 0x00, 0x15, 0x00, 0x00, 0x00,
0xba, 0xf0, 0xff, 0xff, 0x14, 0x00, 0x00, 0x00, 0x00, 0x00, 0x00, 0x01,
0x1c, 0x00, 0x00, 0x00, 0x20, 0x00, 0x00, 0x00, 0x02, 0x00, 0x00, 0x00,
0x0a, 0xf3, 0xff, 0xff, 0x01, 0x00, 0x00, 0x00, 0x01, 0x00, 0x00, 0x00,
0x00, 0x00, 0x00, 0x01, 0x01, 0x00, 0x00, 0x00, 0x92, 0x00, 0x00, 0x00,
0x03, 0x00, 0x00, 0x00, 0x91, 0x00, 0x00, 0x00, 0x1e, 0x00, 0x00, 0x00,
0x39, 0x00, 0x00, 0x00, 0xfa, 0xf0, 0xff, 0xff, 0x14, 0x00, 0x00, 0x00,
0x00, 0x00, 0x00, 0x34, 0x10, 0x00, 0x00, 0x00, 0x14, 0x00, 0x00, 0x00,
0x01, 0x00, 0x00, 0x00, 0x38, 0x90, 0xff, 0xff, 0x01, 0x00, 0x00, 0x00,
0x91, 0x00, 0x00, 0x00, 0x02, 0x00, 0x00, 0x00, 0x90, 0x00, 0x00, 0x00,
0x02, 0x00, 0x00, 0x00, 0xaa, 0xf1, 0xff, 0xff, 0x0c, 0x00, 0x00, 0x00,
0x10, 0x00, 0x00, 0x00, 0x05, 0x00, 0x00, 0x00, 0x01, 0x00, 0x00, 0x00,
0x90, 0x00, 0x00, 0x00, 0x03, 0x00, 0x00, 0x00, 0x8f, 0x00, 0x00, 0x00,
0x13, 0x00, 0x00, 0x00, 0x14, 0x00, 0x00, 0x00, 0x12, 0xf1, 0xff, 0xff,
0x10, 0x00, 0x00, 0x00, 0x00, 0x00, 0x00, 0x16, 0x0c, 0x00, 0x00, 0x00,
0x10, 0x00, 0x00, 0x00, 0x8c, 0x90, 0xff, 0xff, 0x01, 0x00, 0x00, 0x00,
0x8f, 0x00, 0x00, 0x00, 0x02, 0x00, 0x00, 0x00, 0x8e, 0x00, 0x00, 0x00,
0x12, 0x00, 0x00, 0x00, 0x7e, 0xf1, 0xff, 0xff, 0x14, 0x00, 0x00, 0x00,
0x00, 0x00, 0x00, 0x0b, 0x14, 0x00, 0x00, 0x00, 0x18, 0x00, 0x00, 0x00,
0x04, 0x00, 0x00, 0x00, 0xfe, 0xf2, 0xff, 0xff, 0x00, 0x00, 0x00, 0x01,
0x01, 0x00, 0x00, 0x00, 0x8e, 0x00, 0x00, 0x00, 0x02, 0x00, 0x00, 0x00,
0x8d, 0x00, 0x00, 0x00, 0x1f, 0x00, 0x00, 0x00, 0x32, 0xf2, 0xff, 0xff,
0x0c, 0x00, 0x00, 0x00, 0x10, 0x00, 0x00, 0x00, 0x06, 0x00, 0x00, 0x00,
0x01, 0x00, 0x00, 0x00, 0x8d, 0x00, 0x00, 0x00, 0x03, 0x00, 0x00, 0x00,
0x8c, 0x00, 0x00, 0x00, 0x13, 0x00, 0x00, 0x00, 0x14, 0x00, 0x00, 0x00,
0x5a, 0xf2, 0xff, 0xff, 0x0c, 0x00, 0x00, 0x00, 0x10, 0x00, 0x00, 0x00,
0x03, 0x00, 0x00, 0x00, 0x01, 0x00, 0x00, 0x00, 0x8c, 0x00, 0x00, 0x00,
0x02, 0x00, 0x00, 0x00, 0x8b, 0x00, 0x00, 0x00, 0x15, 0x00, 0x00, 0x00,
0xfe, 0xf1, 0xff, 0xff, 0x14, 0x00, 0x00, 0x00, 0x00, 0x00, 0x00, 0x01,
0x1c, 0x00, 0x00, 0x00, 0x20, 0x00, 0x00, 0x00, 0x02, 0x00, 0x00, 0x00,
0x4e, 0xf4, 0xff, 0xff, 0x01, 0x00, 0x00, 0x00, 0x01, 0x00, 0x00, 0x00,
0x00, 0x00, 0x00, 0x01, 0x01, 0x00, 0x00, 0x00, 0x8b, 0x00, 0x00, 0x00,
0x03, 0x00, 0x00, 0x00, 0x8a, 0x00, 0x00, 0x00, 0x20, 0x00, 0x00, 0x00,
0x38, 0x00, 0x00, 0x00, 0x3e, 0xf2, 0xff, 0xff, 0x14, 0x00, 0x00, 0x00,
0x00, 0x00, 0x00, 0x34, 0x10, 0x00, 0x00, 0x00, 0x14, 0x00, 0x00, 0x00,
0x01, 0x00, 0x00, 0x00, 0x7c, 0x91, 0xff, 0xff, 0x01, 0x00, 0x00, 0x00,
0x8a, 0x00, 0x00, 0x00, 0x02, 0x00, 0x00, 0x00, 0x89, 0x00, 0x00, 0x00,
0x02, 0x00, 0x00, 0x00, 0xee, 0xf2, 0xff, 0xff, 0x0c, 0x00, 0x00, 0x00,
0x10, 0x00, 0x00, 0x00, 0x05, 0x00, 0x00, 0x00, 0x01, 0x00, 0x00, 0x00,
0x89, 0x00, 0x00, 0x00, 0x03, 0x00, 0x00, 0x00, 0x88, 0x00, 0x00, 0x00,
0x13, 0x00, 0x00, 0x00, 0x14, 0x00, 0x00, 0x00, 0x56, 0xf2, 0xff, 0xff,
0x10, 0x00, 0x00, 0x00, 0x00, 0x00, 0x00, 0x16, 0x0c, 0x00, 0x00, 0x00,
0x10, 0x00, 0x00, 0x00, 0xd0, 0x91, 0xff, 0xff, 0x01, 0x00, 0x00, 0x00,
0x88, 0x00, 0x00, 0x00, 0x02, 0x00, 0x00, 0x00, 0x87, 0x00, 0x00, 0x00,
0x12, 0x00, 0x00, 0x00, 0xc2, 0xf2, 0xff, 0xff, 0x14, 0x00, 0x00, 0x00,
0x00, 0x00, 0x00, 0x0b, 0x14, 0x00, 0x00, 0x00, 0x18, 0x00, 0x00, 0x00,
0x04, 0x00, 0x00, 0x00, 0x42, 0xf4, 0xff, 0xff, 0x00, 0x00, 0x00, 0x01,
0x01, 0x00, 0x00, 0x00, 0x87, 0x00, 0x00, 0x00, 0x02, 0x00, 0x00, 0x00,
0x77, 0x00, 0x00, 0x00, 0x85, 0x00, 0x00, 0x00, 0xf6, 0xf2, 0xff, 0xff,
0x14, 0x00, 0x00, 0x00, 0x00, 0x00, 0x00, 0x0b, 0x10, 0x00, 0x00, 0x00,
0x14, 0x00, 0x00, 0x00, 0x04, 0x00, 0x00, 0x00, 0x34, 0x92, 0xff, 0xff,
0x01, 0x00, 0x00, 0x00, 0x86, 0x00, 0x00, 0x00, 0x02, 0x00, 0x00, 0x00,
0x76, 0x00, 0x00, 0x00, 0x85, 0x00, 0x00, 0x00, 0x26, 0xf3, 0xff, 0xff,
0x14, 0x00, 0x00, 0x00, 0x00, 0x00, 0x00, 0x0b, 0x14, 0x00, 0x00, 0x00,
0x18, 0x00, 0x00, 0x00, 0x04, 0x00, 0x00, 0x00, 0xa6, 0xf4, 0xff, 0xff,
0x00, 0x00, 0x00, 0x01, 0x01, 0x00, 0x00, 0x00, 0x85, 0x00, 0x00, 0x00,
0x02, 0x00, 0x00, 0x00, 0x84, 0x00, 0x00, 0x00, 0x21, 0x00, 0x00, 0x00,
0xda, 0xf3, 0xff, 0xff, 0x0c, 0x00, 0x00, 0x00, 0x10, 0x00, 0x00, 0x00,
0x06, 0x00, 0x00, 0x00, 0x01, 0x00, 0x00, 0x00, 0x84, 0x00, 0x00, 0x00,
0x03, 0x00, 0x00, 0x00, 0x83, 0x00, 0x00, 0x00, 0x0f, 0x00, 0x00, 0x00,
0x10, 0x00, 0x00, 0x00, 0x02, 0xf4, 0xff, 0xff, 0x0c, 0x00, 0x00, 0x00,
0x10, 0x00, 0x00, 0x00, 0x03, 0x00, 0x00, 0x00, 0x01, 0x00, 0x00, 0x00,
0x83, 0x00, 0x00, 0x00, 0x02, 0x00, 0x00, 0x00, 0x82, 0x00, 0x00, 0x00,
0x11, 0x00, 0x00, 0x00, 0xa6, 0xf3, 0xff, 0xff, 0x14, 0x00, 0x00, 0x00,
0x00, 0x00, 0x00, 0x01, 0x1c, 0x00, 0x00, 0x00, 0x20, 0x00, 0x00, 0x00,
0x02, 0x00, 0x00, 0x00, 0xf6, 0xf5, 0xff, 0xff, 0x01, 0x00, 0x00, 0x00,
0x01, 0x00, 0x00, 0x00, 0x00, 0x00, 0x00, 0x01, 0x01, 0x00, 0x00, 0x00,
0x82, 0x00, 0x00, 0x00, 0x03, 0x00, 0x00, 0x00, 0x81, 0x00, 0x00, 0x00,
0x22, 0x00, 0x00, 0x00, 0x37, 0x00, 0x00, 0x00, 0xe6, 0xf3, 0xff, 0xff,
0x14, 0x00, 0x00, 0x00, 0x00, 0x00, 0x00, 0x34, 0x10, 0x00, 0x00, 0x00,
0x14, 0x00, 0x00, 0x00, 0x01, 0x00, 0x00, 0x00, 0x24, 0x93, 0xff, 0xff,
0x01, 0x00, 0x00, 0x00, 0x81, 0x00, 0x00, 0x00, 0x02, 0x00, 0x00, 0x00,
0x80, 0x00, 0x00, 0x00, 0x02, 0x00, 0x00, 0x00, 0x96, 0xf4, 0xff, 0xff,
0x0c, 0x00, 0x00, 0x00, 0x10, 0x00, 0x00, 0x00, 0x05, 0x00, 0x00, 0x00,
0x01, 0x00, 0x00, 0x00, 0x80, 0x00, 0x00, 0x00, 0x03, 0x00, 0x00, 0x00,
0x7f, 0x00, 0x00, 0x00, 0x0f, 0x00, 0x00, 0x00, 0x10, 0x00, 0x00, 0x00,
0xfe, 0xf3, 0xff, 0xff, 0x10, 0x00, 0x00, 0x00, 0x00, 0x00, 0x00, 0x16,
0x0c, 0x00, 0x00, 0x00, 0x10, 0x00, 0x00, 0x00, 0x78, 0x93, 0xff, 0xff,
0x01, 0x00, 0x00, 0x00, 0x7f, 0x00, 0x00, 0x00, 0x02, 0x00, 0x00, 0x00,
0x7e, 0x00, 0x00, 0x00, 0x0e, 0x00, 0x00, 0x00, 0x6a, 0xf4, 0xff, 0xff,
0x14, 0x00, 0x00, 0x00, 0x00, 0x00, 0x00, 0x0b, 0x14, 0x00, 0x00, 0x00,
0x18, 0x00, 0x00, 0x00, 0x04, 0x00, 0x00, 0x00, 0xea, 0xf5, 0xff, 0xff,
0x00, 0x00, 0x00, 0x01, 0x01, 0x00, 0x00, 0x00, 0x7e, 0x00, 0x00, 0x00,
0x02, 0x00, 0x00, 0x00, 0x7d, 0x00, 0x00, 0x00, 0x23, 0x00, 0x00, 0x00,
0x1e, 0xf5, 0xff, 0xff, 0x0c, 0x00, 0x00, 0x00, 0x10, 0x00, 0x00, 0x00,
0x06, 0x00, 0x00, 0x00, 0x01, 0x00, 0x00, 0x00, 0x7d, 0x00, 0x00, 0x00,
0x03, 0x00, 0x00, 0x00, 0x7c, 0x00, 0x00, 0x00, 0x0f, 0x00, 0x00, 0x00,
0x10, 0x00, 0x00, 0x00, 0x46, 0xf5, 0xff, 0xff, 0x0c, 0x00, 0x00, 0x00,
0x10, 0x00, 0x00, 0x00, 0x03, 0x00, 0x00, 0x00, 0x01, 0x00, 0x00, 0x00,
0x7c, 0x00, 0x00, 0x00, 0x02, 0x00, 0x00, 0x00, 0x7b, 0x00, 0x00, 0x00,
0x11, 0x00, 0x00, 0x00, 0xea, 0xf4, 0xff, 0xff, 0x14, 0x00, 0x00, 0x00,
0x00, 0x00, 0x00, 0x01, 0x1c, 0x00, 0x00, 0x00, 0x20, 0x00, 0x00, 0x00,
0x02, 0x00, 0x00, 0x00, 0x3a, 0xf7, 0xff, 0xff, 0x01, 0x00, 0x00, 0x00,
0x01, 0x00, 0x00, 0x00, 0x00, 0x00, 0x00, 0x01, 0x01, 0x00, 0x00, 0x00,
0x7b, 0x00, 0x00, 0x00, 0x03, 0x00, 0x00, 0x00, 0x7a, 0x00, 0x00, 0x00,
0x24, 0x00, 0x00, 0x00, 0x36, 0x00, 0x00, 0x00, 0x2a, 0xf5, 0xff, 0xff,
0x14, 0x00, 0x00, 0x00, 0x00, 0x00, 0x00, 0x34, 0x10, 0x00, 0x00, 0x00,
0x14, 0x00, 0x00, 0x00, 0x01, 0x00, 0x00, 0x00, 0x68, 0x94, 0xff, 0xff,
0x01, 0x00, 0x00, 0x00, 0x7a, 0x00, 0x00, 0x00, 0x02, 0x00, 0x00, 0x00,
0x79, 0x00, 0x00, 0x00, 0x02, 0x00, 0x00, 0x00, 0xda, 0xf5, 0xff, 0xff,
0x0c, 0x00, 0x00, 0x00, 0x10, 0x00, 0x00, 0x00, 0x05, 0x00, 0x00, 0x00,
0x01, 0x00, 0x00, 0x00, 0x79, 0x00, 0x00, 0x00, 0x03, 0x00, 0x00, 0x00,
0x78, 0x00, 0x00, 0x00, 0x0f, 0x00, 0x00, 0x00, 0x10, 0x00, 0x00, 0x00,
0x42, 0xf5, 0xff, 0xff, 0x10, 0x00, 0x00, 0x00, 0x00, 0x00, 0x00, 0x16,
0x0c, 0x00, 0x00, 0x00, 0x10, 0x00, 0x00, 0x00, 0xbc, 0x94, 0xff, 0xff,
0x01, 0x00, 0x00, 0x00, 0x78, 0x00, 0x00, 0x00, 0x02, 0x00, 0x00, 0x00,
0x77, 0x00, 0x00, 0x00, 0x0e, 0x00, 0x00, 0x00, 0xae, 0xf5, 0xff, 0xff,
0x14, 0x00, 0x00, 0x00, 0x00, 0x00, 0x00, 0x0b, 0x14, 0x00, 0x00, 0x00,
0x18, 0x00, 0x00, 0x00, 0x04, 0x00, 0x00, 0x00, 0x2e, 0xf7, 0xff, 0xff,
0x00, 0x00, 0x00, 0x01, 0x01, 0x00, 0x00, 0x00, 0x77, 0x00, 0x00, 0x00,
0x02, 0x00, 0x00, 0x00, 0x67, 0x00, 0x00, 0x00, 0x75, 0x00, 0x00, 0x00,
0xe2, 0xf5, 0xff, 0xff, 0x14, 0x00, 0x00, 0x00, 0x00, 0x00, 0x00, 0x0b,
0x10, 0x00, 0x00, 0x00, 0x14, 0x00, 0x00, 0x00, 0x04, 0x00, 0x00, 0x00,
0x20, 0x95, 0xff, 0xff, 0x01, 0x00, 0x00, 0x00, 0x76, 0x00, 0x00, 0x00,
0x02, 0x00, 0x00, 0x00, 0x66, 0x00, 0x00, 0x00, 0x75, 0x00, 0x00, 0x00,
0x12, 0xf6, 0xff, 0xff, 0x14, 0x00, 0x00, 0x00, 0x00, 0x00, 0x00, 0x0b,
0x14, 0x00, 0x00, 0x00, 0x18, 0x00, 0x00, 0x00, 0x04, 0x00, 0x00, 0x00,
0x92, 0xf7, 0xff, 0xff, 0x00, 0x00, 0x00, 0x01, 0x01, 0x00, 0x00, 0x00,
0x75, 0x00, 0x00, 0x00, 0x02, 0x00, 0x00, 0x00, 0x74, 0x00, 0x00, 0x00,
0x25, 0x00, 0x00, 0x00, 0xc6, 0xf6, 0xff, 0xff, 0x0c, 0x00, 0x00, 0x00,
0x10, 0x00, 0x00, 0x00, 0x06, 0x00, 0x00, 0x00, 0x01, 0x00, 0x00, 0x00,
0x74, 0x00, 0x00, 0x00, 0x03, 0x00, 0x00, 0x00, 0x73, 0x00, 0x00, 0x00,
0x0c, 0x00, 0x00, 0x00, 0x06, 0x00, 0x00, 0x00, 0xee, 0xf6, 0xff, 0xff,
0x0c, 0x00, 0x00, 0x00, 0x10, 0x00, 0x00, 0x00, 0x03, 0x00, 0x00, 0x00,
0x01, 0x00, 0x00, 0x00, 0x73, 0x00, 0x00, 0x00, 0x02, 0x00, 0x00, 0x00,
0x72, 0x00, 0x00, 0x00, 0x0d, 0x00, 0x00, 0x00, 0x92, 0xf6, 0xff, 0xff,
0x14, 0x00, 0x00, 0x00, 0x00, 0x00, 0x00, 0x01, 0x1c, 0x00, 0x00, 0x00,
0x20, 0x00, 0x00, 0x00, 0x02, 0x00, 0x00, 0x00, 0xe2, 0xf8, 0xff, 0xff,
0x01, 0x00, 0x00, 0x00, 0x01, 0x00, 0x00, 0x00, 0x00, 0x00, 0x00, 0x01,
0x01, 0x00, 0x00, 0x00, 0x72, 0x00, 0x00, 0x00, 0x03, 0x00, 0x00, 0x00,
0x71, 0x00, 0x00, 0x00, 0x26, 0x00, 0x00, 0x00, 0x35, 0x00, 0x00, 0x00,
0xd2, 0xf6, 0xff, 0xff, 0x14, 0x00, 0x00, 0x00, 0x00, 0x00, 0x00, 0x34,
0x10, 0x00, 0x00, 0x00, 0x14, 0x00, 0x00, 0x00, 0x01, 0x00, 0x00, 0x00,
0x10, 0x96, 0xff, 0xff, 0x01, 0x00, 0x00, 0x00, 0x71, 0x00, 0x00, 0x00,
0x02, 0x00, 0x00, 0x00, 0x70, 0x00, 0x00, 0x00, 0x02, 0x00, 0x00, 0x00,
0x82, 0xf7, 0xff, 0xff, 0x0c, 0x00, 0x00, 0x00, 0x10, 0x00, 0x00, 0x00,
0x05, 0x00, 0x00, 0x00, 0x01, 0x00, 0x00, 0x00, 0x70, 0x00, 0x00, 0x00,
0x03, 0x00, 0x00, 0x00, 0x6f, 0x00, 0x00, 0x00, 0x0c, 0x00, 0x00, 0x00,
0x06, 0x00, 0x00, 0x00, 0xea, 0xf6, 0xff, 0xff, 0x10, 0x00, 0x00, 0x00,
0x00, 0x00, 0x00, 0x16, 0x0c, 0x00, 0x00, 0x00, 0x10, 0x00, 0x00, 0x00,
0x64, 0x96, 0xff, 0xff, 0x01, 0x00, 0x00, 0x00, 0x6f, 0x00, 0x00, 0x00,
0x02, 0x00, 0x00, 0x00, 0x6e, 0x00, 0x00, 0x00, 0x0b, 0x00, 0x00, 0x00,
0x56, 0xf7, 0xff, 0xff, 0x14, 0x00, 0x00, 0x00, 0x00, 0x00, 0x00, 0x0b,
0x14, 0x00, 0x00, 0x00, 0x18, 0x00, 0x00, 0x00, 0x04, 0x00, 0x00, 0x00,
0xd6, 0xf8, 0xff, 0xff, 0x00, 0x00, 0x00, 0x01, 0x01, 0x00, 0x00, 0x00,
0x6e, 0x00, 0x00, 0x00, 0x02, 0x00, 0x00, 0x00, 0x6d, 0x00, 0x00, 0x00,
0x27, 0x00, 0x00, 0x00, 0x0a, 0xf8, 0xff, 0xff, 0x0c, 0x00, 0x00, 0x00,
0x10, 0x00, 0x00, 0x00, 0x06, 0x00, 0x00, 0x00, 0x01, 0x00, 0x00, 0x00,
0x6d, 0x00, 0x00, 0x00, 0x03, 0x00, 0x00, 0x00, 0x6c, 0x00, 0x00, 0x00,
0x0c, 0x00, 0x00, 0x00, 0x06, 0x00, 0x00, 0x00, 0x32, 0xf8, 0xff, 0xff,
0x0c, 0x00, 0x00, 0x00, 0x10, 0x00, 0x00, 0x00, 0x03, 0x00, 0x00, 0x00,
0x01, 0x00, 0x00, 0x00, 0x6c, 0x00, 0x00, 0x00, 0x02, 0x00, 0x00, 0x00,
0x6b, 0x00, 0x00, 0x00, 0x0d, 0x00, 0x00, 0x00, 0xd6, 0xf7, 0xff, 0xff,
0x14, 0x00, 0x00, 0x00, 0x00, 0x00, 0x00, 0x01, 0x1c, 0x00, 0x00, 0x00,
0x20, 0x00, 0x00, 0x00, 0x02, 0x00, 0x00, 0x00, 0x26, 0xfa, 0xff, 0xff,
0x01, 0x00, 0x00, 0x00, 0x01, 0x00, 0x00, 0x00, 0x00, 0x00, 0x00, 0x01,
0x01, 0x00, 0x00, 0x00, 0x6b, 0x00, 0x00, 0x00, 0x03, 0x00, 0x00, 0x00,
0x6a, 0x00, 0x00, 0x00, 0x28, 0x00, 0x00, 0x00, 0x34, 0x00, 0x00, 0x00,
0x16, 0xf8, 0xff, 0xff, 0x14, 0x00, 0x00, 0x00, 0x00, 0x00, 0x00, 0x34,
0x10, 0x00, 0x00, 0x00, 0x14, 0x00, 0x00, 0x00, 0x01, 0x00, 0x00, 0x00,
0x54, 0x97, 0xff, 0xff, 0x01, 0x00, 0x00, 0x00, 0x6a, 0x00, 0x00, 0x00,
0x02, 0x00, 0x00, 0x00, 0x69, 0x00, 0x00, 0x00, 0x02, 0x00, 0x00, 0x00,
0xc6, 0xf8, 0xff, 0xff, 0x0c, 0x00, 0x00, 0x00, 0x10, 0x00, 0x00, 0x00,
0x05, 0x00, 0x00, 0x00, 0x01, 0x00, 0x00, 0x00, 0x69, 0x00, 0x00, 0x00,
0x03, 0x00, 0x00, 0x00, 0x68, 0x00, 0x00, 0x00, 0x0c, 0x00, 0x00, 0x00,
0x06, 0x00, 0x00, 0x00, 0x2e, 0xf8, 0xff, 0xff, 0x10, 0x00, 0x00, 0x00,
0x00, 0x00, 0x00, 0x16, 0x0c, 0x00, 0x00, 0x00, 0x10, 0x00, 0x00, 0x00,
0xa8, 0x97, 0xff, 0xff, 0x01, 0x00, 0x00, 0x00, 0x68, 0x00, 0x00, 0x00,
0x02, 0x00, 0x00, 0x00, 0x67, 0x00, 0x00, 0x00, 0x0b, 0x00, 0x00, 0x00,
0x9a, 0xf8, 0xff, 0xff, 0x14, 0x00, 0x00, 0x00, 0x00, 0x00, 0x00, 0x0b,
0x14, 0x00, 0x00, 0x00, 0x18, 0x00, 0x00, 0x00, 0x04, 0x00, 0x00, 0x00,
0x1a, 0xfa, 0xff, 0xff, 0x00, 0x00, 0x00, 0x01, 0x01, 0x00, 0x00, 0x00,
0x67, 0x00, 0x00, 0x00, 0x02, 0x00, 0x00, 0x00, 0x57, 0x00, 0x00, 0x00,
0x65, 0x00, 0x00, 0x00, 0xce, 0xf8, 0xff, 0xff, 0x14, 0x00, 0x00, 0x00,
0x00, 0x00, 0x00, 0x0b, 0x10, 0x00, 0x00, 0x00, 0x14, 0x00, 0x00, 0x00,
0x04, 0x00, 0x00, 0x00, 0x0c, 0x98, 0xff, 0xff, 0x01, 0x00, 0x00, 0x00,
0x66, 0x00, 0x00, 0x00, 0x02, 0x00, 0x00, 0x00, 0x56, 0x00, 0x00, 0x00,
0x65, 0x00, 0x00, 0x00, 0xfe, 0xf8, 0xff, 0xff, 0x14, 0x00, 0x00, 0x00,
0x00, 0x00, 0x00, 0x0b, 0x14, 0x00, 0x00, 0x00, 0x18, 0x00, 0x00, 0x00,
0x04, 0x00, 0x00, 0x00, 0x7e, 0xfa, 0xff, 0xff, 0x00, 0x00, 0x00, 0x01,
0x01, 0x00, 0x00, 0x00, 0x65, 0x00, 0x00, 0x00, 0x02, 0x00, 0x00, 0x00,
0x64, 0x00, 0x00, 0x00, 0x29, 0x00, 0x00, 0x00, 0xb2, 0xf9, 0xff, 0xff,
0x0c, 0x00, 0x00, 0x00, 0x10, 0x00, 0x00, 0x00, 0x06, 0x00, 0x00, 0x00,
0x01, 0x00, 0x00, 0x00, 0x64, 0x00, 0x00, 0x00, 0x03, 0x00, 0x00, 0x00,
0x63, 0x00, 0x00, 0x00, 0x09, 0x00, 0x00, 0x00, 0x06, 0x00, 0x00, 0x00,
0xda, 0xf9, 0xff, 0xff, 0x0c, 0x00, 0x00, 0x00, 0x10, 0x00, 0x00, 0x00,
0x03, 0x00, 0x00, 0x00, 0x01, 0x00, 0x00, 0x00, 0x63, 0x00, 0x00, 0x00,
0x02, 0x00, 0x00, 0x00, 0x62, 0x00, 0x00, 0x00, 0x0a, 0x00, 0x00, 0x00,
0x7e, 0xf9, 0xff, 0xff, 0x14, 0x00, 0x00, 0x00, 0x00, 0x00, 0x00, 0x01,
0x1c, 0x00, 0x00, 0x00, 0x20, 0x00, 0x00, 0x00, 0x02, 0x00, 0x00, 0x00,
0xce, 0xfb, 0xff, 0xff, 0x01, 0x00, 0x00, 0x00, 0x01, 0x00, 0x00, 0x00,
0x00, 0x00, 0x00, 0x01, 0x01, 0x00, 0x00, 0x00, 0x62, 0x00, 0x00, 0x00,
0x03, 0x00, 0x00, 0x00, 0x61, 0x00, 0x00, 0x00, 0x2a, 0x00, 0x00, 0x00,
0x33, 0x00, 0x00, 0x00, 0xbe, 0xf9, 0xff, 0xff, 0x14, 0x00, 0x00, 0x00,
0x00, 0x00, 0x00, 0x34, 0x10, 0x00, 0x00, 0x00, 0x14, 0x00, 0x00, 0x00,
0x01, 0x00, 0x00, 0x00, 0xfc, 0x98, 0xff, 0xff, 0x01, 0x00, 0x00, 0x00,
0x61, 0x00, 0x00, 0x00, 0x02, 0x00, 0x00, 0x00, 0x60, 0x00, 0x00, 0x00,
0x02, 0x00, 0x00, 0x00, 0x6e, 0xfa, 0xff, 0xff, 0x0c, 0x00, 0x00, 0x00,
0x10, 0x00, 0x00, 0x00, 0x05, 0x00, 0x00, 0x00, 0x01, 0x00, 0x00, 0x00,
0x60, 0x00, 0x00, 0x00, 0x03, 0x00, 0x00, 0x00, 0x5f, 0x00, 0x00, 0x00,
0x09, 0x00, 0x00, 0x00, 0x06, 0x00, 0x00, 0x00, 0xd6, 0xf9, 0xff, 0xff,
0x10, 0x00, 0x00, 0x00, 0x00, 0x00, 0x00, 0x16, 0x0c, 0x00, 0x00, 0x00,
0x10, 0x00, 0x00, 0x00, 0x50, 0x99, 0xff, 0xff, 0x01, 0x00, 0x00, 0x00,
0x5f, 0x00, 0x00, 0x00, 0x02, 0x00, 0x00, 0x00, 0x5e, 0x00, 0x00, 0x00,
0x08, 0x00, 0x00, 0x00, 0x42, 0xfa, 0xff, 0xff, 0x14, 0x00, 0x00, 0x00,
0x00, 0x00, 0x00, 0x0b, 0x14, 0x00, 0x00, 0x00, 0x18, 0x00, 0x00, 0x00,
0x04, 0x00, 0x00, 0x00, 0xc2, 0xfb, 0xff, 0xff, 0x00, 0x00, 0x00, 0x01,
0x01, 0x00, 0x00, 0x00, 0x5e, 0x00, 0x00, 0x00, 0x02, 0x00, 0x00, 0x00,
0x5d, 0x00, 0x00, 0x00, 0x2b, 0x00, 0x00, 0x00, 0xf6, 0xfa, 0xff, 0xff,
0x0c, 0x00, 0x00, 0x00, 0x10, 0x00, 0x00, 0x00, 0x06, 0x00, 0x00, 0x00,
0x01, 0x00, 0x00, 0x00, 0x5d, 0x00, 0x00, 0x00, 0x03, 0x00, 0x00, 0x00,
0x5c, 0x00, 0x00, 0x00, 0x09, 0x00, 0x00, 0x00, 0x06, 0x00, 0x00, 0x00,
0x1e, 0xfb, 0xff, 0xff, 0x0c, 0x00, 0x00, 0x00, 0x10, 0x00, 0x00, 0x00,
0x03, 0x00, 0x00, 0x00, 0x01, 0x00, 0x00, 0x00, 0x5c, 0x00, 0x00, 0x00,
0x02, 0x00, 0x00, 0x00, 0x5b, 0x00, 0x00, 0x00, 0x0a, 0x00, 0x00, 0x00,
0xc2, 0xfa, 0xff, 0xff, 0x14, 0x00, 0x00, 0x00, 0x00, 0x00, 0x00, 0x01,
0x1c, 0x00, 0x00, 0x00, 0x20, 0x00, 0x00, 0x00, 0x02, 0x00, 0x00, 0x00,
0x12, 0xfd, 0xff, 0xff, 0x01, 0x00, 0x00, 0x00, 0x01, 0x00, 0x00, 0x00,
0x00, 0x00, 0x00, 0x01, 0x01, 0x00, 0x00, 0x00, 0x5b, 0x00, 0x00, 0x00,
0x03, 0x00, 0x00, 0x00, 0x5a, 0x00, 0x00, 0x00, 0x2c, 0x00, 0x00, 0x00,
0x32, 0x00, 0x00, 0x00, 0x02, 0xfb, 0xff, 0xff, 0x14, 0x00, 0x00, 0x00,
0x00, 0x00, 0x00, 0x34, 0x10, 0x00, 0x00, 0x00, 0x14, 0x00, 0x00, 0x00,
0x01, 0x00, 0x00, 0x00, 0x40, 0x9a, 0xff, 0xff, 0x01, 0x00, 0x00, 0x00,
0x5a, 0x00, 0x00, 0x00, 0x02, 0x00, 0x00, 0x00, 0x59, 0x00, 0x00, 0x00,
0x02, 0x00, 0x00, 0x00, 0xb2, 0xfb, 0xff, 0xff, 0x0c, 0x00, 0x00, 0x00,
0x10, 0x00, 0x00, 0x00, 0x05, 0x00, 0x00, 0x00, 0x01, 0x00, 0x00, 0x00,
0x59, 0x00, 0x00, 0x00, 0x03, 0x00, 0x00, 0x00, 0x58, 0x00, 0x00, 0x00,
0x09, 0x00, 0x00, 0x00, 0x06, 0x00, 0x00, 0x00, 0x1a, 0xfb, 0xff, 0xff,
0x10, 0x00, 0x00, 0x00, 0x00, 0x00, 0x00, 0x16, 0x0c, 0x00, 0x00, 0x00,
0x10, 0x00, 0x00, 0x00, 0x94, 0x9a, 0xff, 0xff, 0x01, 0x00, 0x00, 0x00,
0x58, 0x00, 0x00, 0x00, 0x02, 0x00, 0x00, 0x00, 0x57, 0x00, 0x00, 0x00,
0x08, 0x00, 0x00, 0x00, 0x86, 0xfb, 0xff, 0xff, 0x14, 0x00, 0x00, 0x00,
0x00, 0x00, 0x00, 0x0b, 0x14, 0x00, 0x00, 0x00, 0x18, 0x00, 0x00, 0x00,
0x04, 0x00, 0x00, 0x00, 0x06, 0xfd, 0xff, 0xff, 0x00, 0x00, 0x00, 0x01,
0x01, 0x00, 0x00, 0x00, 0x57, 0x00, 0x00, 0x00, 0x02, 0x00, 0x00, 0x00,
0x47, 0x00, 0x00, 0x00, 0x55, 0x00, 0x00, 0x00, 0xba, 0xfb, 0xff, 0xff,
0x14, 0x00, 0x00, 0x00, 0x00, 0x00, 0x00, 0x0b, 0x10, 0x00, 0x00, 0x00,
0x14, 0x00, 0x00, 0x00, 0x04, 0x00, 0x00, 0x00, 0xf8, 0x9a, 0xff, 0xff,
0x01, 0x00, 0x00, 0x00, 0x56, 0x00, 0x00, 0x00, 0x02, 0x00, 0x00, 0x00,
0x46, 0x00, 0x00, 0x00, 0x55, 0x00, 0x00, 0x00, 0xea, 0xfb, 0xff, 0xff,
0x14, 0x00, 0x00, 0x00, 0x00, 0x00, 0x00, 0x0b, 0x14, 0x00, 0x00, 0x00,
0x18, 0x00, 0x00, 0x00, 0x04, 0x00, 0x00, 0x00, 0x6a, 0xfd, 0xff, 0xff,
0x00, 0x00, 0x00, 0x01, 0x01, 0x00, 0x00, 0x00, 0x55, 0x00, 0x00, 0x00,
0x02, 0x00, 0x00, 0x00, 0x54, 0x00, 0x00, 0x00, 0x2d, 0x00, 0x00, 0x00,
0x9e, 0xfc, 0xff, 0xff, 0x0c, 0x00, 0x00, 0x00, 0x10, 0x00, 0x00, 0x00,
0x06, 0x00, 0x00, 0x00, 0x01, 0x00, 0x00, 0x00, 0x54, 0x00, 0x00, 0x00,
0x03, 0x00, 0x00, 0x00, 0x53, 0x00, 0x00, 0x00, 0x05, 0x00, 0x00, 0x00,
0x06, 0x00, 0x00, 0x00, 0xc6, 0xfc, 0xff, 0xff, 0x0c, 0x00, 0x00, 0x00,
0x10, 0x00, 0x00, 0x00, 0x03, 0x00, 0x00, 0x00, 0x01, 0x00, 0x00, 0x00,
0x53, 0x00, 0x00, 0x00, 0x02, 0x00, 0x00, 0x00, 0x52, 0x00, 0x00, 0x00,
0x07, 0x00, 0x00, 0x00, 0x6a, 0xfc, 0xff, 0xff, 0x14, 0x00, 0x00, 0x00,
0x00, 0x00, 0x00, 0x01, 0x1c, 0x00, 0x00, 0x00, 0x20, 0x00, 0x00, 0x00,
0x02, 0x00, 0x00, 0x00, 0xba, 0xfe, 0xff, 0xff, 0x01, 0x00, 0x00, 0x00,
0x01, 0x00, 0x00, 0x00, 0x00, 0x00, 0x00, 0x01, 0x01, 0x00, 0x00, 0x00,
0x52, 0x00, 0x00, 0x00, 0x03, 0x00, 0x00, 0x00, 0x51, 0x00, 0x00, 0x00,
0x2e, 0x00, 0x00, 0x00, 0x31, 0x00, 0x00, 0x00, 0xaa, 0xfc, 0xff, 0xff,
0x14, 0x00, 0x00, 0x00, 0x00, 0x00, 0x00, 0x34, 0x10, 0x00, 0x00, 0x00,
0x14, 0x00, 0x00, 0x00, 0x01, 0x00, 0x00, 0x00, 0xe8, 0x9b, 0xff, 0xff,
0x01, 0x00, 0x00, 0x00, 0x51, 0x00, 0x00, 0x00, 0x02, 0x00, 0x00, 0x00,
0x50, 0x00, 0x00, 0x00, 0x02, 0x00, 0x00, 0x00, 0x5a, 0xfd, 0xff, 0xff,
0x0c, 0x00, 0x00, 0x00, 0x10, 0x00, 0x00, 0x00, 0x05, 0x00, 0x00, 0x00,
0x01, 0x00, 0x00, 0x00, 0x50, 0x00, 0x00, 0x00, 0x03, 0x00, 0x00, 0x00,
0x4f, 0x00, 0x00, 0x00, 0x05, 0x00, 0x00, 0x00, 0x06, 0x00, 0x00, 0x00,
0xc2, 0xfc, 0xff, 0xff, 0x10, 0x00, 0x00, 0x00, 0x00, 0x00, 0x00, 0x16,
0x0c, 0x00, 0x00, 0x00, 0x10, 0x00, 0x00, 0x00, 0x3c, 0x9c, 0xff, 0xff,
0x01, 0x00, 0x00, 0x00, 0x4f, 0x00, 0x00, 0x00, 0x02, 0x00, 0x00, 0x00,
0x4e, 0x00, 0x00, 0x00, 0x04, 0x00, 0x00, 0x00, 0x2e, 0xfd, 0xff, 0xff,
0x14, 0x00, 0x00, 0x00, 0x00, 0x00, 0x00, 0x0b, 0x14, 0x00, 0x00, 0x00,
0x18, 0x00, 0x00, 0x00, 0x04, 0x00, 0x00, 0x00, 0xae, 0xfe, 0xff, 0xff,
0x00, 0x00, 0x00, 0x01, 0x01, 0x00, 0x00, 0x00, 0x4e, 0x00, 0x00, 0x00,
0x02, 0x00, 0x00, 0x00, 0x4d, 0x00, 0x00, 0x00, 0x2f, 0x00, 0x00, 0x00,
0xe2, 0xfd, 0xff, 0xff, 0x0c, 0x00, 0x00, 0x00, 0x10, 0x00, 0x00, 0x00,
0x06, 0x00, 0x00, 0x00, 0x01, 0x00, 0x00, 0x00, 0x4d, 0x00, 0x00, 0x00,
0x03, 0x00, 0x00, 0x00, 0x4c, 0x00, 0x00, 0x00, 0x05, 0x00, 0x00, 0x00,
0x06, 0x00, 0x00, 0x00, 0x0a, 0xfe, 0xff, 0xff, 0x0c, 0x00, 0x00, 0x00,
0x10, 0x00, 0x00, 0x00, 0x03, 0x00, 0x00, 0x00, 0x01, 0x00, 0x00, 0x00,
0x4c, 0x00, 0x00, 0x00, 0x02, 0x00, 0x00, 0x00, 0x4b, 0x00, 0x00, 0x00,
0x07, 0x00, 0x00, 0x00, 0xae, 0xfd, 0xff, 0xff, 0x20, 0x00, 0x00, 0x00,
0x00, 0x00, 0x00, 0x01, 0x28, 0x00, 0x00, 0x00, 0x2c, 0x00, 0x00, 0x00,
0x02, 0x00, 0x00, 0x00, 0x00, 0x00, 0x0a, 0x00, 0x10, 0x00, 0x0f, 0x00,
0x08, 0x00, 0x04, 0x00, 0x0a, 0x00, 0x00, 0x00, 0x01, 0x00, 0x00, 0x00,
0x01, 0x00, 0x00, 0x00, 0x00, 0x00, 0x00, 0x01, 0x01, 0x00, 0x00, 0x00,
0x4b, 0x00, 0x00, 0x00, 0x03, 0x00, 0x00, 0x00, 0x4a, 0x00, 0x00, 0x00,
0x3a, 0x00, 0x00, 0x00, 0x30, 0x00, 0x00, 0x00, 0xfa, 0xfd, 0xff, 0xff,
0x14, 0x00, 0x00, 0x00, 0x00, 0x00, 0x00, 0x34, 0x10, 0x00, 0x00, 0x00,
0x14, 0x00, 0x00, 0x00, 0x01, 0x00, 0x00, 0x00, 0x38, 0x9d, 0xff, 0xff,
0x01, 0x00, 0x00, 0x00, 0x4a, 0x00, 0x00, 0x00, 0x02, 0x00, 0x00, 0x00,
0x49, 0x00, 0x00, 0x00, 0x02, 0x00, 0x00, 0x00, 0xaa, 0xfe, 0xff, 0xff,
0x0c, 0x00, 0x00, 0x00, 0x10, 0x00, 0x00, 0x00, 0x05, 0x00, 0x00, 0x00,
0x01, 0x00, 0x00, 0x00, 0x49, 0x00, 0x00, 0x00, 0x03, 0x00, 0x00, 0x00,
0x48, 0x00, 0x00, 0x00, 0x05, 0x00, 0x00, 0x00, 0x06, 0x00, 0x00, 0x00,
0x12, 0xfe, 0xff, 0xff, 0x10, 0x00, 0x00, 0x00, 0x00, 0x00, 0x00, 0x16,
0x0c, 0x00, 0x00, 0x00, 0x10, 0x00, 0x00, 0x00, 0x8c, 0x9d, 0xff, 0xff,
0x01, 0x00, 0x00, 0x00, 0x48, 0x00, 0x00, 0x00, 0x02, 0x00, 0x00, 0x00,
0x47, 0x00, 0x00, 0x00, 0x04, 0x00, 0x00, 0x00, 0x7e, 0xfe, 0xff, 0xff,
0x1c, 0x00, 0x00, 0x00, 0x00, 0x00, 0x00, 0x0b, 0x1c, 0x00, 0x00, 0x00,
0x20, 0x00, 0x00, 0x00, 0x04, 0x00, 0x00, 0x00, 0x00, 0x00, 0x06, 0x00,
0x08, 0x00, 0x07, 0x00, 0x06, 0x00, 0x00, 0x00, 0x00, 0x00, 0x00, 0x01,
0x01, 0x00, 0x00, 0x00, 0x47, 0x00, 0x00, 0x00, 0x02, 0x00, 0x00, 0x00,
0x00, 0x00, 0x00, 0x00, 0x46, 0x00, 0x00, 0x00, 0x3a, 0xff, 0xff, 0xff,
0x0c, 0x00, 0x00, 0x00, 0x10, 0x00, 0x00, 0x00, 0x03, 0x00, 0x00, 0x00,
0x01, 0x00, 0x00, 0x00, 0x46, 0x00, 0x00, 0x00, 0x02, 0x00, 0x00, 0x00,
0x45, 0x00, 0x00, 0x00, 0x03, 0x00, 0x00, 0x00, 0xde, 0xfe, 0xff, 0xff,
0x14, 0x00, 0x00, 0x00, 0x00, 0x00, 0x00, 0x01, 0x20, 0x00, 0x00, 0x00,
0x24, 0x00, 0x00, 0x00, 0x02, 0x00, 0x00, 0x00, 0x30, 0xff, 0xff, 0xff,
0x00, 0x00, 0x00, 0x01, 0x01, 0x00, 0x00, 0x00, 0x01, 0x00, 0x00, 0x00,
0x00, 0x00, 0x00, 0x01, 0x01, 0x00, 0x00, 0x00, 0x45, 0x00, 0x00, 0x00,
0x03, 0x00, 0x00, 0x00, 0x44, 0x00, 0x00, 0x00, 0x3c, 0x00, 0x00, 0x00,
0x3b, 0x00, 0x00, 0x00, 0x22, 0xff, 0xff, 0xff, 0x14, 0x00, 0x00, 0x00,
0x00, 0x00, 0x00, 0x34, 0x10, 0x00, 0x00, 0x00, 0x14, 0x00, 0x00, 0x00,
0x01, 0x00, 0x00, 0x00, 0x60, 0x9e, 0xff, 0xff, 0x01, 0x00, 0x00, 0x00,
0x44, 0x00, 0x00, 0x00, 0x02, 0x00, 0x00, 0x00, 0x43, 0x00, 0x00, 0x00,
0x02, 0x00, 0x00, 0x00, 0x12, 0xff, 0xff, 0xff, 0x10, 0x00, 0x00, 0x00,
0x00, 0x00, 0x00, 0x16, 0x0c, 0x00, 0x00, 0x00, 0x10, 0x00, 0x00, 0x00,
0x8c, 0x9e, 0xff, 0xff, 0x01, 0x00, 0x00, 0x00, 0x43, 0x00, 0x00, 0x00,
0x02, 0x00, 0x00, 0x00, 0x42, 0x00, 0x00, 0x00, 0x01, 0x00, 0x00, 0x00,
0x00, 0x00, 0x0a, 0x00, 0x10, 0x00, 0x0c, 0x00, 0x08, 0x00, 0x04, 0x00,
0x0a, 0x00, 0x00, 0x00, 0x0c, 0x00, 0x00, 0x00, 0x10, 0x00, 0x00, 0x00,
0x03, 0x00, 0x00, 0x00, 0x01, 0x00, 0x00, 0x00, 0x42, 0x00, 0x00, 0x00,
0x02, 0x00, 0x00, 0x00, 0x41, 0x00, 0x00, 0x00, 0x03, 0x00, 0x00, 0x00,
0xae, 0xff, 0xff, 0xff, 0x20, 0x00, 0x00, 0x00, 0x00, 0x00, 0x00, 0x01,
0x2c, 0x00, 0x00, 0x00, 0x30, 0x00, 0x00, 0x00, 0x02, 0x00, 0x00, 0x00,
0x0c, 0x00, 0x14, 0x00, 0x13, 0x00, 0x0c, 0x00, 0x08, 0x00, 0x07, 0x00,
0x0c, 0x00, 0x00, 0x00, 0x00, 0x00, 0x00, 0x01, 0x01, 0x00, 0x00, 0x00,
0x01, 0x00, 0x00, 0x00, 0x00, 0x00, 0x00, 0x01, 0x01, 0x00, 0x00, 0x00,
0x41, 0x00, 0x00, 0x00, 0x03, 0x00, 0x00, 0x00, 0x40, 0x00, 0x00, 0x00,
0x3e, 0x00, 0x00, 0x00, 0x3d, 0x00, 0x00, 0x00, 0x00, 0x00, 0x0e, 0x00,
0x18, 0x00, 0x14, 0x00, 0x10, 0x00, 0x0c, 0x00, 0x0b, 0x00, 0x04, 0x00,
0x0e, 0x00, 0x00, 0x00, 0x14, 0x00, 0x00, 0x00, 0x00, 0x00, 0x00, 0x34,
0x10, 0x00, 0x00, 0x00, 0x14, 0x00, 0x00, 0x00, 0x01, 0x00, 0x00, 0x00,
0x4c, 0x9f, 0xff, 0xff, 0x01, 0x00, 0x00, 0x00, 0x40, 0x00, 0x00, 0x00,
0x02, 0x00, 0x00, 0x00, 0x3f, 0x00, 0x00, 0x00, 0x02, 0x00, 0x00, 0x00,
0x00, 0x00, 0x0e, 0x00, 0x14, 0x00, 0x00, 0x00, 0x10, 0x00, 0x0c, 0x00,
0x0b, 0x00, 0x04, 0x00, 0x0e, 0x00, 0x00, 0x00, 0x10, 0x00, 0x00, 0x00,
0x00, 0x00, 0x00, 0x16, 0x0c, 0x00, 0x00, 0x00, 0x10, 0x00, 0x00, 0x00,
0x88, 0x9f, 0xff, 0xff, 0x01, 0x00, 0x00, 0x00, 0x3f, 0x00, 0x00, 0x00,
0x02, 0x00, 0x00, 0x00, 0x00, 0x00, 0x00, 0x00, 0x01, 0x00, 0x00, 0x00,
0x01, 0x00, 0x00, 0x00, 0x9a, 0x00, 0x00, 0x00, 0x01, 0x00, 0x00, 0x00,
0x00, 0x00, 0x00, 0x00, 0x9b, 0x00, 0x00, 0x00, 0x8c, 0x60, 0x00, 0x00,
0x2c, 0x60, 0x00, 0x00, 0xd8, 0x5f, 0x00, 0x00, 0x98, 0x5f, 0x00, 0x00,
0x54, 0x5f, 0x00, 0x00, 0x14, 0x5f, 0x00, 0x00, 0xd0, 0x5e, 0x00, 0x00,
0x90, 0x5e, 0x00, 0x00, 0x4c, 0x5e, 0x00, 0x00, 0x0c, 0x5e, 0x00, 0x00,
0xcc, 0x5d, 0x00, 0x00, 0x84, 0x5d, 0x00, 0x00, 0x40, 0x5d, 0x00, 0x00,
0xfc, 0x5c, 0x00, 0x00, 0xb4, 0x5c, 0x00, 0x00, 0x70, 0x5c, 0x00, 0x00,
0x28, 0x5c, 0x00, 0x00, 0xe4, 0x5b, 0x00, 0x00, 0x9c, 0x5b, 0x00, 0x00,
0x58, 0x5b, 0x00, 0x00, 0x10, 0x5b, 0x00, 0x00, 0xcc, 0x5a, 0x00, 0x00,
0x88, 0x5a, 0x00, 0x00, 0x44, 0x5a, 0x00, 0x00, 0x00, 0x5a, 0x00, 0x00,
0x70, 0x59, 0x00, 0x00, 0xdc, 0x58, 0x00, 0x00, 0xf8, 0x57, 0x00, 0x00,
0x0c, 0x57, 0x00, 0x00, 0xa8, 0x56, 0x00, 0x00, 0xfc, 0x55, 0x00, 0x00,
0x98, 0x55, 0x00, 0x00, 0xec, 0x54, 0x00, 0x00, 0x88, 0x54, 0x00, 0x00,
0xdc, 0x53, 0x00, 0x00, 0x78, 0x53, 0x00, 0x00, 0xcc, 0x52, 0x00, 0x00,
0x68, 0x52, 0x00, 0x00, 0xbc, 0x51, 0x00, 0x00, 0x58, 0x51, 0x00, 0x00,
0xac, 0x50, 0x00, 0x00, 0x48, 0x50, 0x00, 0x00, 0x9c, 0x4f, 0x00, 0x00,
0x38, 0x4f, 0x00, 0x00, 0x8c, 0x4e, 0x00, 0x00, 0x28, 0x4e, 0x00, 0x00,
0x7c, 0x4d, 0x00, 0x00, 0x18, 0x4d, 0x00, 0x00, 0x7c, 0x4c, 0x00, 0x00,
0xe0, 0x4b, 0x00, 0x00, 0x44, 0x4b, 0x00, 0x00, 0xa8, 0x4a, 0x00, 0x00,
0x0c, 0x4a, 0x00, 0x00, 0x70, 0x49, 0x00, 0x00, 0xd4, 0x48, 0x00, 0x00,
0x38, 0x48, 0x00, 0x00, 0x9c, 0x47, 0x00, 0x00, 0x00, 0x47, 0x00, 0x00,
0x54, 0x46, 0x00, 0x00, 0xb8, 0x45, 0x00, 0x00, 0x0c, 0x45, 0x00, 0x00,
0x70, 0x44, 0x00, 0x00, 0xc4, 0x43, 0x00, 0x00, 0x24, 0x43, 0x00, 0x00,
0x6c, 0x42, 0x00, 0x00, 0x00, 0x41, 0x00, 0x00, 0xd8, 0x3f, 0x00, 0x00,
0x34, 0x3f, 0x00, 0x00, 0x7c, 0x3e, 0x00, 0x00, 0x10, 0x3d, 0x00, 0x00,
0xe8, 0x3b, 0x00, 0x00, 0x0c, 0x3b, 0x00, 0x00, 0x68, 0x3a, 0x00, 0x00,
0xb4, 0x39, 0x00, 0x00, 0xfc, 0x38, 0x00, 0x00, 0x48, 0x38, 0x00, 0x00,
0x98, 0x37, 0x00, 0x00, 0xe4, 0x36, 0x00, 0x00, 0x08, 0x36, 0x00, 0x00,
0x64, 0x35, 0x00, 0x00, 0xb0, 0x34, 0x00, 0x00, 0xf8, 0x33, 0x00, 0x00,
0x44, 0x33, 0x00, 0x00, 0x94, 0x32, 0x00, 0x00, 0xe0, 0x31, 0x00, 0x00,
0x04, 0x31, 0x00, 0x00, 0x68, 0x30, 0x00, 0x00, 0x8c, 0x2f, 0x00, 0x00,
0xe8, 0x2e, 0x00, 0x00, 0x34, 0x2e, 0x00, 0x00, 0x7c, 0x2d, 0x00, 0x00,
0xc8, 0x2c, 0x00, 0x00, 0x18, 0x2c, 0x00, 0x00, 0x64, 0x2b, 0x00, 0x00,
0x88, 0x2a, 0x00, 0x00, 0xe4, 0x29, 0x00, 0x00, 0x30, 0x29, 0x00, 0x00,
0x78, 0x28, 0x00, 0x00, 0xc4, 0x27, 0x00, 0x00, 0x14, 0x27, 0x00, 0x00,
0x60, 0x26, 0x00, 0x00, 0x84, 0x25, 0x00, 0x00, 0xe8, 0x24, 0x00, 0x00,
0x0c, 0x24, 0x00, 0x00, 0x68, 0x23, 0x00, 0x00, 0xb4, 0x22, 0x00, 0x00,
0xfc, 0x21, 0x00, 0x00, 0x48, 0x21, 0x00, 0x00, 0x98, 0x20, 0x00, 0x00,
0xe4, 0x1f, 0x00, 0x00, 0x08, 0x1f, 0x00, 0x00, 0x64, 0x1e, 0x00, 0x00,
0xb0, 0x1d, 0x00, 0x00, 0xf8, 0x1c, 0x00, 0x00, 0x44, 0x1c, 0x00, 0x00,
0x94, 0x1b, 0x00, 0x00, 0xe0, 0x1a, 0x00, 0x00, 0x04, 0x1a, 0x00, 0x00,
0x68, 0x19, 0x00, 0x00, 0x8c, 0x18, 0x00, 0x00, 0xe8, 0x17, 0x00, 0x00,
0x34, 0x17, 0x00, 0x00, 0x7c, 0x16, 0x00, 0x00, 0xc8, 0x15, 0x00, 0x00,
0x18, 0x15, 0x00, 0x00, 0x64, 0x14, 0x00, 0x00, 0x88, 0x13, 0x00, 0x00,
0xe4, 0x12, 0x00, 0x00, 0x30, 0x12, 0x00, 0x00, 0x78, 0x11, 0x00, 0x00,
0xc4, 0x10, 0x00, 0x00, 0x14, 0x10, 0x00, 0x00, 0x60, 0x0f, 0x00, 0x00,
0x84, 0x0e, 0x00, 0x00, 0xe8, 0x0d, 0x00, 0x00, 0x0c, 0x0d, 0x00, 0x00,
0x68, 0x0c, 0x00, 0x00, 0xb4, 0x0b, 0x00, 0x00, 0xfc, 0x0a, 0x00, 0x00,
0x48, 0x0a, 0x00, 0x00, 0x98, 0x09, 0x00, 0x00, 0xe4, 0x08, 0x00, 0x00,
0x08, 0x08, 0x00, 0x00, 0x64, 0x07, 0x00, 0x00, 0xb0, 0x06, 0x00, 0x00,
0xf8, 0x05, 0x00, 0x00, 0x44, 0x05, 0x00, 0x00, 0x94, 0x04, 0x00, 0x00,
0xe0, 0x03, 0x00, 0x00, 0x04, 0x03, 0x00, 0x00, 0x68, 0x02, 0x00, 0x00,
0xd8, 0x01, 0x00, 0x00, 0x24, 0x01, 0x00, 0x00, 0x80, 0x00, 0x00, 0x00,
0x04, 0x00, 0x00, 0x00, 0xf6, 0xa1, 0xff, 0xff, 0x00, 0x00, 0x00, 0x01,
0x18, 0x00, 0x00, 0x00, 0x20, 0x00, 0x00, 0x00, 0x3c, 0x00, 0x00, 0x00,
0x9b, 0x00, 0x00, 0x00, 0x00, 0x00, 0x00, 0x09, 0x50, 0x00, 0x00, 0x00,
0x02, 0x00, 0x00, 0x00, 0xff, 0xff, 0xff, 0xff, 0x05, 0x00, 0x00, 0x00,
0xdc, 0xa1, 0xff, 0xff, 0x08, 0x00, 0x00, 0x00, 0x10, 0x00, 0x00, 0x00,
0x01, 0x00, 0x00, 0x00, 0x80, 0xff, 0xff, 0xff, 0xff, 0xff, 0xff, 0xff,
0x01, 0x00, 0x00, 0x00, 0x00, 0x00, 0x80, 0x3b, 0x1b, 0x00, 0x00, 0x00,
0x53, 0x74, 0x61, 0x74, 0x65, 0x66, 0x75, 0x6c, 0x50, 0x61, 0x72, 0x74,
0x69, 0x74, 0x69, 0x6f, 0x6e, 0x65, 0x64, 0x43, 0x61, 0x6c, 0x6c, 0x5f,
0x31, 0x3a, 0x30, 0x00, 0x02, 0x00, 0x00, 0x00, 0x01, 0x00, 0x00, 0x00,
0x05, 0x00, 0x00, 0x00, 0x6e, 0xa2, 0xff, 0xff, 0x00, 0x00, 0x00, 0x01,
0x18, 0x00, 0x00, 0x00, 0x20, 0x00, 0x00, 0x00, 0x40, 0x00, 0x00, 0x00,
0x9a, 0x00, 0x00, 0x00, 0x00, 0x00, 0x00, 0x09, 0x78, 0x00, 0x00, 0x00,
0x02, 0x00, 0x00, 0x00, 0xff, 0xff, 0xff, 0xff, 0x05, 0x00, 0x00, 0x00,
0x54, 0xa2, 0xff, 0xff, 0x08, 0x00, 0x00, 0x00, 0x14, 0x00, 0x00, 0x00,
0x01, 0x00, 0x00, 0x00, 0xe0, 0xff, 0xff, 0xff, 0xff, 0xff, 0xff, 0xff,
0x00, 0x00, 0x00, 0x00, 0x01, 0x00, 0x00, 0x00, 0xcb, 0x78, 0xbe, 0x3d,
0x3c, 0x00, 0x00, 0x00, 0x73, 0x65, 0x71, 0x75, 0x65, 0x6e, 0x74, 0x69,
0x61, 0x6c, 0x5f, 0x31, 0x2f, 0x64, 0x65, 0x6e, 0x73, 0x65, 0x5f, 0x31,
0x5f, 0x32, 0x2f, 0x4d, 0x61, 0x74, 0x4d, 0x75, 0x6c, 0x3b, 0x73, 0x65,
0x71, 0x75, 0x65, 0x6e, 0x74, 0x69, 0x61, 0x6c, 0x5f, 0x31, 0x2f, 0x64,
0x65, 0x6e, 0x73, 0x65, 0x5f, 0x31, 0x5f, 0x32, 0x2f, 0x42, 0x69, 0x61,
0x73, 0x41, 0x64, 0x64, 0x00, 0x00, 0x00, 0x00, 0x02, 0x00, 0x00, 0x00,
0x01, 0x00, 0x00, 0x00, 0x05, 0x00, 0x00, 0x00, 0x0e, 0xa3, 0xff, 0xff,
0x00, 0x00, 0x00, 0x01, 0x18, 0x00, 0x00, 0x00, 0x20, 0x00, 0x00, 0x00,
0x3c, 0x00, 0x00, 0x00, 0x99, 0x00, 0x00, 0x00, 0x00, 0x00, 0x00, 0x09,
0x88, 0x00, 0x00, 0x00, 0x02, 0x00, 0x00, 0x00, 0xff, 0xff, 0xff, 0xff,
0x0c, 0x00, 0x00, 0x00, 0xf4, 0xa2, 0xff, 0xff, 0x08, 0x00, 0x00, 0x00,
0x10, 0x00, 0x00, 0x00, 0x01, 0x00, 0x00, 0x00, 0x80, 0xff, 0xff, 0xff,
0xff, 0xff, 0xff, 0xff, 0x01, 0x00, 0x00, 0x00, 0xc9, 0x14, 0xb9, 0x3d,
0x52, 0x00, 0x00, 0x00, 0x73, 0x65, 0x71, 0x75, 0x65, 0x6e, 0x74, 0x69,
0x61, 0x6c, 0x5f, 0x31, 0x2f, 0x64, 0x65, 0x6e, 0x73, 0x65, 0x5f, 0x31,
0x2f, 0x4d, 0x61, 0x74, 0x4d, 0x75, 0x6c, 0x3b, 0x73, 0x65, 0x71, 0x75,
0x65, 0x6e, 0x74, 0x69, 0x61, 0x6c, 0x5f, 0x31, 0x2f, 0x64, 0x65, 0x6e,
0x73, 0x65, 0x5f, 0x31, 0x2f, 0x52, 0x65, 0x6c, 0x75, 0x3b, 0x73, 0x65,
0x71, 0x75, 0x65, 0x6e, 0x74, 0x69, 0x61, 0x6c, 0x5f, 0x31, 0x2f, 0x64,
0x65, 0x6e, 0x73, 0x65, 0x5f, 0x31, 0x2f, 0x42, 0x69, 0x61, 0x73, 0x41,
0x64, 0x64, 0x00, 0x00, 0x02, 0x00, 0x00, 0x00, 0x01, 0x00, 0x00, 0x00,
0x0c, 0x00, 0x00, 0x00, 0xbe, 0xa3, 0xff, 0xff, 0x00, 0x00, 0x00, 0x01,
0x18, 0x00, 0x00, 0x00, 0x20, 0x00, 0x00, 0x00, 0x3c, 0x00, 0x00, 0x00,
0x98, 0x00, 0x00, 0x00, 0x00, 0x00, 0x00, 0x09, 0x64, 0x00, 0x00, 0x00,
0x02, 0x00, 0x00, 0x00, 0xff, 0xff, 0xff, 0xff, 0x06, 0x00, 0x00, 0x00,
0xa4, 0xa3, 0xff, 0xff, 0x08, 0x00, 0x00, 0x00, 0x10, 0x00, 0x00, 0x00,
0x01, 0x00, 0x00, 0x00, 0x80, 0xff, 0xff, 0xff, 0xff, 0xff, 0xff, 0xff,
0x01, 0x00, 0x00, 0x00, 0x9c, 0x7f, 0xe3, 0x3e, 0x2f, 0x00, 0x00, 0x00,
0x73, 0x65, 0x71, 0x75, 0x65, 0x6e, 0x74, 0x69, 0x61, 0x6c, 0x5f, 0x31,
0x2f, 0x74, 0x63, 0x6e, 0x5f, 0x31, 0x2f, 0x53, 0x6c, 0x69, 0x63, 0x65,
0x5f, 0x4f, 0x75, 0x74, 0x70, 0x75, 0x74, 0x5f, 0x31, 0x2f, 0x73, 0x74,
0x72, 0x69, 0x64, 0x65, 0x64, 0x5f, 0x73, 0x6c, 0x69, 0x63, 0x65, 0x00,
0x02, 0x00, 0x00, 0x00, 0x01, 0x00, 0x00, 0x00, 0x06, 0x00, 0x00, 0x00,
0x4a, 0xa4, 0xff, 0xff, 0x00, 0x00, 0x00, 0x01, 0x18, 0x00, 0x00, 0x00,
0x24, 0x00, 0x00, 0x00, 0x44, 0x00, 0x00, 0x00, 0x97, 0x00, 0x00, 0x00,
0x00, 0x00, 0x00, 0x09, 0x6c, 0x00, 0x00, 0x00, 0x03, 0x00, 0x00, 0x00,
0xff, 0xff, 0xff, 0xff, 0x08, 0x01, 0x00, 0x00, 0x06, 0x00, 0x00, 0x00,
0x34, 0xa4, 0xff, 0xff, 0x08, 0x00, 0x00, 0x00, 0x14, 0x00, 0x00, 0x00,
0x01, 0x00, 0x00, 0x00, 0x80, 0xff, 0xff, 0xff, 0xff, 0xff, 0xff, 0xff,
0x00, 0x00, 0x00, 0x00, 0x01, 0x00, 0x00, 0x00, 0x9c, 0x7f, 0xe3, 0x3e,
0x2f, 0x00, 0x00, 0x00, 0x73, 0x65, 0x71, 0x75, 0x65, 0x6e, 0x74, 0x69,
0x61, 0x6c, 0x5f, 0x31, 0x2f, 0x74, 0x63, 0x6e, 0x5f, 0x31, 0x2f, 0x41,
0x64, 0x64, 0x5f, 0x53, 0x6b, 0x69, 0x70, 0x5f, 0x43, 0x6f, 0x6e, 0x6e,
0x65, 0x63, 0x74, 0x69, 0x6f, 0x6e, 0x73, 0x5f, 0x31, 0x2f, 0x41, 0x64,
0x64, 0x5f, 0x34, 0x00, 0x03, 0x00, 0x00, 0x00, 0x01, 0x00, 0x00, 0x00,
0x08, 0x01, 0x00, 0x00, 0x06, 0x00, 0x00, 0x00, 0xe2, 0xa4, 0xff, 0xff,
0x00, 0x00, 0x00, 0x01, 0x18, 0x00, 0x00, 0x00, 0x24, 0x00, 0x00, 0x00,
0x40, 0x00, 0x00, 0x00, 0x96, 0x00, 0x00, 0x00, 0x00, 0x00, 0x00, 0x09,
0xac, 0x00, 0x00, 0x00, 0x03, 0x00, 0x00, 0x00, 0xff, 0xff, 0xff, 0xff,
0x08, 0x01, 0x00, 0x00, 0x06, 0x00, 0x00, 0x00, 0xcc, 0xa4, 0xff, 0xff,
0x08, 0x00, 0x00, 0x00, 0x10, 0x00, 0x00, 0x00, 0x01, 0x00, 0x00, 0x00,
0x80, 0xff, 0xff, 0xff, 0xff, 0xff, 0xff, 0xff, 0x01, 0x00, 0x00, 0x00,
0x30, 0x4b, 0x9e, 0x3e, 0x72, 0x00, 0x00, 0x00, 0x73, 0x65, 0x71, 0x75,
0x65, 0x6e, 0x74, 0x69, 0x61, 0x6c, 0x5f, 0x31, 0x2f, 0x74, 0x63, 0x6e,
0x5f, 0x31, 0x2f, 0x72, 0x65, 0x73, 0x69, 0x64, 0x75, 0x61, 0x6c, 0x5f,
0x62, 0x6c, 0x6f, 0x63, 0x6b, 0x5f, 0x35, 0x5f, 0x31, 0x2f, 0x41, 0x63,
0x74, 0x5f, 0x43, 0x6f, 0x6e, 0x76, 0x31, 0x44, 0x5f, 0x31, 0x5f, 0x31,
0x2f, 0x52, 0x65, 0x6c, 0x75, 0x3b, 0x73, 0x65, 0x71, 0x75, 0x65, 0x6e,
0x74, 0x69, 0x61, 0x6c, 0x5f, 0x31, 0x2f, 0x74, 0x63, 0x6e, 0x5f, 0x31,
0x2f, 0x72, 0x65, 0x73, 0x69, 0x64, 0x75, 0x61, 0x6c, 0x5f, 0x62, 0x6c,
0x6f, 0x63, 0x6b, 0x5f, 0x35, 0x5f, 0x31, 0x2f, 0x63, 0x6f, 0x6e, 0x76,
0x31, 0x44, 0x5f, 0x31, 0x5f, 0x31, 0x2f, 0x42, 0x69, 0x61, 0x73, 0x41,
0x64, 0x64, 0x00, 0x00, 0x03, 0x00, 0x00, 0x00, 0x01, 0x00, 0x00, 0x00,
0x08, 0x01, 0x00, 0x00, 0x06, 0x00, 0x00, 0x00, 0xba, 0xa5, 0xff, 0xff,
0x00, 0x00, 0x00, 0x01, 0x18, 0x00, 0x00, 0x00, 0x24, 0x00, 0x00, 0x00,
0x40, 0x00, 0x00, 0x00, 0x95, 0x00, 0x00, 0x00, 0x00, 0x00, 0x00, 0x09,
0x84, 0x00, 0x00, 0x00, 0x03, 0x00, 0x00, 0x00, 0xff, 0xff, 0xff, 0xff,
0x08, 0x01, 0x00, 0x00, 0x06, 0x00, 0x00, 0x00, 0xa4, 0xa5, 0xff, 0xff,
0x08, 0x00, 0x00, 0x00, 0x10, 0x00, 0x00, 0x00, 0x01, 0x00, 0x00, 0x00,
0xee, 0xff, 0xff, 0xff, 0xff, 0xff, 0xff, 0xff, 0x01, 0x00, 0x00, 0x00,
0x77, 0x17, 0x0b, 0x3f, 0x4b, 0x00, 0x00, 0x00, 0x73, 0x65, 0x71, 0x75,
0x65, 0x6e, 0x74, 0x69, 0x61, 0x6c, 0x5f, 0x31, 0x2f, 0x74, 0x63, 0x6e,
0x5f, 0x31, 0x2f, 0x72, 0x65, 0x73, 0x69, 0x64, 0x75, 0x61, 0x6c, 0x5f,
0x62, 0x6c, 0x6f, 0x63, 0x6b, 0x5f, 0x35, 0x5f, 0x31, 0x2f, 0x63, 0x6f,
0x6e, 0x76, 0x31, 0x44, 0x5f, 0x31, 0x5f, 0x31, 0x2f, 0x63, 0x6f, 0x6e,
0x76, 0x6f, 0x6c, 0x75, 0x74, 0x69, 0x6f, 0x6e, 0x2f, 0x42, 0x61, 0x74,
0x63, 0x68, 0x54, 0x6f, 0x53, 0x70, 0x61, 0x63, 0x65, 0x4e, 0x44, 0x00,
0x03, 0x00, 0x00, 0x00, 0x01, 0x00, 0x00, 0x00, 0x08, 0x01, 0x00, 0x00,
0x06, 0x00, 0x00, 0x00, 0x6a, 0xa6, 0xff, 0xff, 0x00, 0x00, 0x00, 0x01,
0x18, 0x00, 0x00, 0x00, 0x24, 0x00, 0x00, 0x00, 0x40, 0x00, 0x00, 0x00,
0x94, 0x00, 0x00, 0x00, 0x00, 0x00, 0x00, 0x09, 0x80, 0x00, 0x00, 0x00,
0x03, 0x00, 0x00, 0x00, 0xff, 0xff, 0xff, 0xff, 0x09, 0x00, 0x00, 0x00,
0x06, 0x00, 0x00, 0x00, 0x54, 0xa6, 0xff, 0xff, 0x08, 0x00, 0x00, 0x00,
0x10, 0x00, 0x00, 0x00, 0x01, 0x00, 0x00, 0x00, 0xee, 0xff, 0xff, 0xff,
0xff, 0xff, 0xff, 0xff, 0x01, 0x00, 0x00, 0x00, 0x77, 0x17, 0x0b, 0x3f,
0x44, 0x00, 0x00, 0x00, 0x73, 0x65, 0x71, 0x75, 0x65, 0x6e, 0x74, 0x69,
0x61, 0x6c, 0x5f, 0x31, 0x2f, 0x74, 0x63, 0x6e, 0x5f, 0x31, 0x2f, 0x72,
0x65, 0x73, 0x69, 0x64, 0x75, 0x61, 0x6c, 0x5f, 0x62, 0x6c, 0x6f, 0x63,
0x6b, 0x5f, 0x35, 0x5f, 0x31, 0x2f, 0x63, 0x6f, 0x6e, 0x76, 0x31, 0x44,
0x5f, 0x31, 0x5f, 0x31, 0x2f, 0x63, 0x6f, 0x6e, 0x76, 0x6f, 0x6c, 0x75,
0x74, 0x69, 0x6f, 0x6e, 0x2f, 0x53, 0x71, 0x75, 0x65, 0x65, 0x7a, 0x65,
0x00, 0x00, 0x00, 0x00, 0x03, 0x00, 0x00, 0x00, 0x01, 0x00, 0x00, 0x00,
0x09, 0x00, 0x00, 0x00, 0x06, 0x00, 0x00, 0x00, 0x16, 0xa7, 0xff, 0xff,
0x00, 0x00, 0x00, 0x01, 0x18, 0x00, 0x00, 0x00, 0x28, 0x00, 0x00, 0x00,
0x48, 0x00, 0x00, 0x00, 0x93, 0x00, 0x00, 0x00, 0x00, 0x00, 0x00, 0x09,
0x80, 0x00, 0x00, 0x00, 0x04, 0x00, 0x00, 0x00, 0xff, 0xff, 0xff, 0xff,
0x01, 0x00, 0x00, 0x00, 0x09, 0x00, 0x00, 0x00, 0x06, 0x00, 0x00, 0x00,
0x04, 0xa7, 0xff, 0xff, 0x08, 0x00, 0x00, 0x00, 0x14, 0x00, 0x00, 0x00,
0x01, 0x00, 0x00, 0x00, 0xee, 0xff, 0xff, 0xff, 0xff, 0xff, 0xff, 0xff,
0x00, 0x00, 0x00, 0x00, 0x01, 0x00, 0x00, 0x00, 0x77, 0x17, 0x0b, 0x3f,
0x3c, 0x00, 0x00, 0x00, 0x73, 0x65, 0x71, 0x75, 0x65, 0x6e, 0x74, 0x69,
0x61, 0x6c, 0x5f, 0x31, 0x2f, 0x74, 0x63, 0x6e, 0x5f, 0x31, 0x2f, 0x72,
0x65, 0x73, 0x69, 0x64, 0x75, 0x61, 0x6c, 0x5f, 0x62, 0x6c, 0x6f, 0x63,
0x6b, 0x5f, 0x35, 0x5f, 0x31, 0x2f, 0x63, 0x6f, 0x6e, 0x76, 0x31, 0x44,
0x5f, 0x31, 0x5f, 0x31, 0x2f, 0x63, 0x6f, 0x6e, 0x76, 0x6f, 0x6c, 0x75,
0x74, 0x69, 0x6f, 0x6e, 0x00, 0x00, 0x00, 0x00, 0x04, 0x00, 0x00, 0x00,
0x01, 0x00, 0x00, 0x00, 0x01, 0x00, 0x00, 0x00, 0x09, 0x00, 0x00, 0x00,
0x06, 0x00, 0x00, 0x00, 0xc6, 0xa7, 0xff, 0xff, 0x00, 0x00, 0x00, 0x01,
0x18, 0x00, 0x00, 0x00, 0x28, 0x00, 0x00, 0x00, 0x44, 0x00, 0x00, 0x00,
0x92, 0x00, 0x00, 0x00, 0x00, 0x00, 0x00, 0x09, 0x84, 0x00, 0x00, 0x00,
0x04, 0x00, 0x00, 0x00, 0xff, 0xff, 0xff, 0xff, 0x01, 0x00, 0x00, 0x00,
0x0b, 0x00, 0x00, 0x00, 0x06, 0x00, 0x00, 0x00, 0xb4, 0xa7, 0xff, 0xff,
0x08, 0x00, 0x00, 0x00, 0x10, 0x00, 0x00, 0x00, 0x01, 0x00, 0x00, 0x00,
0x80, 0xff, 0xff, 0xff, 0xff, 0xff, 0xff, 0xff, 0x01, 0x00, 0x00, 0x00,
0x4d, 0x4c, 0x80, 0x3e, 0x47, 0x00, 0x00, 0x00, 0x73, 0x65, 0x71, 0x75,
0x65, 0x6e, 0x74, 0x69, 0x61, 0x6c, 0x5f, 0x31, 0x2f, 0x74, 0x63, 0x6e,
0x5f, 0x31, 0x2f, 0x72, 0x65, 0x73, 0x69, 0x64, 0x75, 0x61, 0x6c, 0x5f,
0x62, 0x6c, 0x6f, 0x63, 0x6b, 0x5f, 0x35, 0x5f, 0x31, 0x2f, 0x63, 0x6f,
0x6e, 0x76, 0x31, 0x44, 0x5f, 0x31, 0x5f, 0x31, 0x2f, 0x63, 0x6f, 0x6e,
0x76, 0x6f, 0x6c, 0x75, 0x74, 0x69, 0x6f, 0x6e, 0x2f, 0x45, 0x78, 0x70,
0x61, 0x6e, 0x64, 0x44, 0x69, 0x6d, 0x73, 0x00, 0x04, 0x00, 0x00, 0x00,
0x01, 0x00, 0x00, 0x00, 0x01, 0x00, 0x00, 0x00, 0x0b, 0x00, 0x00, 0x00,
0x06, 0x00, 0x00, 0x00, 0x7a, 0xa8, 0xff, 0xff, 0x00, 0x00, 0x00, 0x01,
0x18, 0x00, 0x00, 0x00, 0x24, 0x00, 0x00, 0x00, 0x40, 0x00, 0x00, 0x00,
0x91, 0x00, 0x00, 0x00, 0x00, 0x00, 0x00, 0x09, 0x84, 0x00, 0x00, 0x00,
0x03, 0x00, 0x00, 0x00, 0xff, 0xff, 0xff, 0xff, 0x0b, 0x00, 0x00, 0x00,
0x06, 0x00, 0x00, 0x00, 0x64, 0xa8, 0xff, 0xff, 0x08, 0x00, 0x00, 0x00,
0x10, 0x00, 0x00, 0x00, 0x01, 0x00, 0x00, 0x00, 0x80, 0xff, 0xff, 0xff,
0xff, 0xff, 0xff, 0xff, 0x01, 0x00, 0x00, 0x00, 0x4d, 0x4c, 0x80, 0x3e,
0x4b, 0x00, 0x00, 0x00, 0x73, 0x65, 0x71, 0x75, 0x65, 0x6e, 0x74, 0x69,
0x61, 0x6c, 0x5f, 0x31, 0x2f, 0x74, 0x63, 0x6e, 0x5f, 0x31, 0x2f, 0x72,
0x65, 0x73, 0x69, 0x64, 0x75, 0x61, 0x6c, 0x5f, 0x62, 0x6c, 0x6f, 0x63,
0x6b, 0x5f, 0x35, 0x5f, 0x31, 0x2f, 0x63, 0x6f, 0x6e, 0x76, 0x31, 0x44,
0x5f, 0x31, 0x5f, 0x31, 0x2f, 0x63, 0x6f, 0x6e, 0x76, 0x6f, 0x6c, 0x75,
0x74, 0x69, 0x6f, 0x6e, 0x2f, 0x53, 0x70, 0x61, 0x63, 0x65, 0x54, 0x6f,
0x42, 0x61, 0x74, 0x63, 0x68, 0x4e, 0x44, 0x00, 0x03, 0x00, 0x00, 0x00,
0x01, 0x00, 0x00, 0x00, 0x0b, 0x00, 0x00, 0x00, 0x06, 0x00, 0x00, 0x00,
0x2a, 0xa9, 0xff, 0xff, 0x00, 0x00, 0x00, 0x01, 0x18, 0x00, 0x00, 0x00,
0x24, 0x00, 0x00, 0x00, 0x44, 0x00, 0x00, 0x00, 0x90, 0x00, 0x00, 0x00,
0x00, 0x00, 0x00, 0x09, 0x74, 0x00, 0x00, 0x00, 0x03, 0x00, 0x00, 0x00,
0xff, 0xff, 0xff, 0xff, 0x48, 0x01, 0x00, 0x00, 0x06, 0x00, 0x00, 0x00,
0x14, 0xa9, 0xff, 0xff, 0x08, 0x00, 0x00, 0x00, 0x14, 0x00, 0x00, 0x00,
0x01, 0x00, 0x00, 0x00, 0x80, 0xff, 0xff, 0xff, 0xff, 0xff, 0xff, 0xff,
0x00, 0x00, 0x00, 0x00, 0x01, 0x00, 0x00, 0x00, 0x4d, 0x4c, 0x80, 0x3e,
0x34, 0x00, 0x00, 0x00, 0x73, 0x65, 0x71, 0x75, 0x65, 0x6e, 0x74, 0x69,
0x61, 0x6c, 0x5f, 0x31, 0x2f, 0x74, 0x63, 0x6e, 0x5f, 0x31, 0x2f, 0x72,
0x65, 0x73, 0x69, 0x64, 0x75, 0x61, 0x6c, 0x5f, 0x62, 0x6c, 0x6f, 0x63,
0x6b, 0x5f, 0x35, 0x5f, 0x31, 0x2f, 0x63, 0x6f, 0x6e, 0x76, 0x31, 0x44,
0x5f, 0x31, 0x5f, 0x31, 0x2f, 0x50, 0x61, 0x64, 0x00, 0x00, 0x00, 0x00,
0x03, 0x00, 0x00, 0x00, 0x01, 0x00, 0x00, 0x00, 0x48, 0x01, 0x00, 0x00,
0x06, 0x00, 0x00, 0x00, 0xca, 0xa9, 0xff, 0xff, 0x00, 0x00, 0x00, 0x01,
0x18, 0x00, 0x00, 0x00, 0x24, 0x00, 0x00, 0x00, 0x40, 0x00, 0x00, 0x00,
0x8f, 0x00, 0x00, 0x00, 0x00, 0x00, 0x00, 0x09, 0xac, 0x00, 0x00, 0x00,
0x03, 0x00, 0x00, 0x00, 0xff, 0xff, 0xff, 0xff, 0x08, 0x01, 0x00, 0x00,
0x06, 0x00, 0x00, 0x00, 0xb4, 0xa9, 0xff, 0xff, 0x08, 0x00, 0x00, 0x00,
0x10, 0x00, 0x00, 0x00, 0x01, 0x00, 0x00, 0x00, 0x80, 0xff, 0xff, 0xff,
0xff, 0xff, 0xff, 0xff, 0x01, 0x00, 0x00, 0x00, 0x4d, 0x4c, 0x80, 0x3e,
0x72, 0x00, 0x00, 0x00, 0x73, 0x65, 0x71, 0x75, 0x65, 0x6e, 0x74, 0x69,
0x61, 0x6c, 0x5f, 0x31, 0x2f, 0x74, 0x63, 0x6e, 0x5f, 0x31, 0x2f, 0x72,
0x65, 0x73, 0x69, 0x64, 0x75, 0x61, 0x6c, 0x5f, 0x62, 0x6c, 0x6f, 0x63,
0x6b, 0x5f, 0x35, 0x5f, 0x31, 0x2f, 0x41, 0x63, 0x74, 0x5f, 0x43, 0x6f,
0x6e, 0x76, 0x31, 0x44, 0x5f, 0x30, 0x5f, 0x31, 0x2f, 0x52, 0x65, 0x6c,
0x75, 0x3b, 0x73, 0x65, 0x71, 0x75, 0x65, 0x6e, 0x74, 0x69, 0x61, 0x6c,
0x5f, 0x31, 0x2f, 0x74, 0x63, 0x6e, 0x5f, 0x31, 0x2f, 0x72, 0x65, 0x73,
0x69, 0x64, 0x75, 0x61, 0x6c, 0x5f, 0x62, 0x6c, 0x6f, 0x63, 0x6b, 0x5f,
0x35, 0x5f, 0x31, 0x2f, 0x63, 0x6f, 0x6e, 0x76, 0x31, 0x44, 0x5f, 0x30,
0x5f, 0x31, 0x2f, 0x42, 0x69, 0x61, 0x73, 0x41, 0x64, 0x64, 0x00, 0x00,
0x03, 0x00, 0x00, 0x00, 0x01, 0x00, 0x00, 0x00, 0x08, 0x01, 0x00, 0x00,
0x06, 0x00, 0x00, 0x00, 0xa2, 0xaa, 0xff, 0xff, 0x00, 0x00, 0x00, 0x01,
0x18, 0x00, 0x00, 0x00, 0x24, 0x00, 0x00, 0x00, 0x40, 0x00, 0x00, 0x00,
0x8e, 0x00, 0x00, 0x00, 0x00, 0x00, 0x00, 0x09, 0x84, 0x00, 0x00, 0x00,
0x03, 0x00, 0x00, 0x00, 0xff, 0xff, 0xff, 0xff, 0x08, 0x01, 0x00, 0x00,
0x06, 0x00, 0x00, 0x00, 0x8c, 0xaa, 0xff, 0xff, 0x08, 0x00, 0x00, 0x00,
0x10, 0x00, 0x00, 0x00, 0x01, 0x00, 0x00, 0x00, 0x03, 0x00, 0x00, 0x00,
0x00, 0x00, 0x00, 0x00, 0x01, 0x00, 0x00, 0x00, 0xd8, 0x21, 0x04, 0x3f,
0x4b, 0x00, 0x00, 0x00, 0x73, 0x65, 0x71, 0x75, 0x65, 0x6e, 0x74, 0x69,
0x61, 0x6c, 0x5f, 0x31, 0x2f, 0x74, 0x63, 0x6e, 0x5f, 0x31, 0x2f, 0x72,
0x65, 0x73, 0x69, 0x64, 0x75, 0x61, 0x6c, 0x5f, 0x62, 0x6c, 0x6f, 0x63,
0x6b, 0x5f, 0x35, 0x5f, 0x31, 0x2f, 0x63, 0x6f, 0x6e, 0x76, 0x31, 0x44,
0x5f, 0x30, 0x5f, 0x31, 0x2f, 0x63, 0x6f, 0x6e, 0x76, 0x6f, 0x6c, 0x75,
0x74, 0x69, 0x6f, 0x6e, 0x2f, 0x42, 0x61, 0x74, 0x63, 0x68, 0x54, 0x6f,
0x53, 0x70, 0x61, 0x63, 0x65, 0x4e, 0x44, 0x00, 0x03, 0x00, 0x00, 0x00,
0x01, 0x00, 0x00, 0x00, 0x08, 0x01, 0x00, 0x00, 0x06, 0x00, 0x00, 0x00,
0x52, 0xab, 0xff, 0xff, 0x00, 0x00, 0x00, 0x01, 0x18, 0x00, 0x00, 0x00,
0x24, 0x00, 0x00, 0x00, 0x40, 0x00, 0x00, 0x00, 0x8d, 0x00, 0x00, 0x00,
0x00, 0x00, 0x00, 0x09, 0x80, 0x00, 0x00, 0x00, 0x03, 0x00, 0x00, 0x00,
0xff, 0xff, 0xff, 0xff, 0x09, 0x00, 0x00, 0x00, 0x06, 0x00, 0x00, 0x00,
0x3c, 0xab, 0xff, 0xff, 0x08, 0x00, 0x00, 0x00, 0x10, 0x00, 0x00, 0x00,
0x01, 0x00, 0x00, 0x00, 0x03, 0x00, 0x00, 0x00, 0x00, 0x00, 0x00, 0x00,
0x01, 0x00, 0x00, 0x00, 0xd8, 0x21, 0x04, 0x3f, 0x44, 0x00, 0x00, 0x00,
0x73, 0x65, 0x71, 0x75, 0x65, 0x6e, 0x74, 0x69, 0x61, 0x6c, 0x5f, 0x31,
0x2f, 0x74, 0x63, 0x6e, 0x5f, 0x31, 0x2f, 0x72, 0x65, 0x73, 0x69, 0x64,
0x75, 0x61, 0x6c, 0x5f, 0x62, 0x6c, 0x6f, 0x63, 0x6b, 0x5f, 0x35, 0x5f,
0x31, 0x2f, 0x63, 0x6f, 0x6e, 0x76, 0x31, 0x44, 0x5f, 0x30, 0x5f, 0x31,
0x2f, 0x63, 0x6f, 0x6e, 0x76, 0x6f, 0x6c, 0x75, 0x74, 0x69, 0x6f, 0x6e,
0x2f, 0x53, 0x71, 0x75, 0x65, 0x65, 0x7a, 0x65, 0x00, 0x00, 0x00, 0x00,
0x03, 0x00, 0x00, 0x00, 0x01, 0x00, 0x00, 0x00, 0x09, 0x00, 0x00, 0x00,
0x06, 0x00, 0x00, 0x00, 0xfe, 0xab, 0xff, 0xff, 0x00, 0x00, 0x00, 0x01,
0x18, 0x00, 0x00, 0x00, 0x28, 0x00, 0x00, 0x00, 0x48, 0x00, 0x00, 0x00,
0x8c, 0x00, 0x00, 0x00, 0x00, 0x00, 0x00, 0x09, 0x80, 0x00, 0x00, 0x00,
0x04, 0x00, 0x00, 0x00, 0xff, 0xff, 0xff, 0xff, 0x01, 0x00, 0x00, 0x00,
0x09, 0x00, 0x00, 0x00, 0x06, 0x00, 0x00, 0x00, 0xec, 0xab, 0xff, 0xff,
0x08, 0x00, 0x00, 0x00, 0x14, 0x00, 0x00, 0x00, 0x01, 0x00, 0x00, 0x00,
0x03, 0x00, 0x00, 0x00, 0x00, 0x00, 0x00, 0x00, 0x00, 0x00, 0x00, 0x00,
0x01, 0x00, 0x00, 0x00, 0xd8, 0x21, 0x04, 0x3f, 0x3c, 0x00, 0x00, 0x00,
0x73, 0x65, 0x71, 0x75, 0x65, 0x6e, 0x74, 0x69, 0x61, 0x6c, 0x5f, 0x31,
0x2f, 0x74, 0x63, 0x6e, 0x5f, 0x31, 0x2f, 0x72, 0x65, 0x73, 0x69, 0x64,
0x75, 0x61, 0x6c, 0x5f, 0x62, 0x6c, 0x6f, 0x63, 0x6b, 0x5f, 0x35, 0x5f,
0x31, 0x2f, 0x63, 0x6f, 0x6e, 0x76, 0x31, 0x44, 0x5f, 0x30, 0x5f, 0x31,
0x2f, 0x63, 0x6f, 0x6e, 0x76, 0x6f, 0x6c, 0x75, 0x74, 0x69, 0x6f, 0x6e,
0x00, 0x00, 0x00, 0x00, 0x04, 0x00, 0x00, 0x00, 0x01, 0x00, 0x00, 0x00,
0x01, 0x00, 0x00, 0x00, 0x09, 0x00, 0x00, 0x00, 0x06, 0x00, 0x00, 0x00,
0xae, 0xac, 0xff, 0xff, 0x00, 0x00, 0x00, 0x01, 0x18, 0x00, 0x00, 0x00,
0x28, 0x00, 0x00, 0x00, 0x44, 0x00, 0x00, 0x00, 0x8b, 0x00, 0x00, 0x00,
0x00, 0x00, 0x00, 0x09, 0x84, 0x00, 0x00, 0x00, 0x04, 0x00, 0x00, 0x00,
0xff, 0xff, 0xff, 0xff, 0x01, 0x00, 0x00, 0x00, 0x0b, 0x00, 0x00, 0x00,
0x06, 0x00, 0x00, 0x00, 0x9c, 0xac, 0xff, 0xff, 0x08, 0x00, 0x00, 0x00,
0x10, 0x00, 0x00, 0x00, 0x01, 0x00, 0x00, 0x00, 0x80, 0xff, 0xff, 0xff,
0xff, 0xff, 0xff, 0xff, 0x01, 0x00, 0x00, 0x00, 0xbf, 0x1b, 0x9e, 0x3e,
0x47, 0x00, 0x00, 0x00, 0x73, 0x65, 0x71, 0x75, 0x65, 0x6e, 0x74, 0x69,
0x61, 0x6c, 0x5f, 0x31, 0x2f, 0x74, 0x63, 0x6e, 0x5f, 0x31, 0x2f, 0x72,
0x65, 0x73, 0x69, 0x64, 0x75, 0x61, 0x6c, 0x5f, 0x62, 0x6c, 0x6f, 0x63,
0x6b, 0x5f, 0x35, 0x5f, 0x31, 0x2f, 0x63, 0x6f, 0x6e, 0x76, 0x31, 0x44,
0x5f, 0x30, 0x5f, 0x31, 0x2f, 0x63, 0x6f, 0x6e, 0x76, 0x6f, 0x6c, 0x75,
0x74, 0x69, 0x6f, 0x6e, 0x2f, 0x45, 0x78, 0x70, 0x61, 0x6e, 0x64, 0x44,
0x69, 0x6d, 0x73, 0x00, 0x04, 0x00, 0x00, 0x00, 0x01, 0x00, 0x00, 0x00,
0x01, 0x00, 0x00, 0x00, 0x0b, 0x00, 0x00, 0x00, 0x06, 0x00, 0x00, 0x00,
0x62, 0xad, 0xff, 0xff, 0x00, 0x00, 0x00, 0x01, 0x18, 0x00, 0x00, 0x00,
0x24, 0x00, 0x00, 0x00, 0x40, 0x00, 0x00, 0x00, 0x8a, 0x00, 0x00, 0x00,
0x00, 0x00, 0x00, 0x09, 0x84, 0x00, 0x00, 0x00, 0x03, 0x00, 0x00, 0x00,
0xff, 0xff, 0xff, 0xff, 0x0b, 0x00, 0x00, 0x00, 0x06, 0x00, 0x00, 0x00,
0x4c, 0xad, 0xff, 0xff, 0x08, 0x00, 0x00, 0x00, 0x10, 0x00, 0x00, 0x00,
0x01, 0x00, 0x00, 0x00, 0x80, 0xff, 0xff, 0xff, 0xff, 0xff, 0xff, 0xff,
0x01, 0x00, 0x00, 0x00, 0xbf, 0x1b, 0x9e, 0x3e, 0x4b, 0x00, 0x00, 0x00,
0x73, 0x65, 0x71, 0x75, 0x65, 0x6e, 0x74, 0x69, 0x61, 0x6c, 0x5f, 0x31,
0x2f, 0x74, 0x63, 0x6e, 0x5f, 0x31, 0x2f, 0x72, 0x65, 0x73, 0x69, 0x64,
0x75, 0x61, 0x6c, 0x5f, 0x62, 0x6c, 0x6f, 0x63, 0x6b, 0x5f, 0x35, 0x5f,
0x31, 0x2f, 0x63, 0x6f, 0x6e, 0x76, 0x31, 0x44, 0x5f, 0x30, 0x5f, 0x31,
0x2f, 0x63, 0x6f, 0x6e, 0x76, 0x6f, 0x6c, 0x75, 0x74, 0x69, 0x6f, 0x6e,
0x2f, 0x53, 0x70, 0x61, 0x63, 0x65, 0x54, 0x6f, 0x42, 0x61, 0x74, 0x63,
0x68, 0x4e, 0x44, 0x00, 0x03, 0x00, 0x00, 0x00, 0x01, 0x00, 0x00, 0x00,
0x0b, 0x00, 0x00, 0x00, 0x06, 0x00, 0x00, 0x00, 0x12, 0xae, 0xff, 0xff,
0x00, 0x00, 0x00, 0x01, 0x18, 0x00, 0x00, 0x00, 0x24, 0x00, 0x00, 0x00,
0x44, 0x00, 0x00, 0x00, 0x89, 0x00, 0x00, 0x00, 0x00, 0x00, 0x00, 0x09,
0x74, 0x00, 0x00, 0x00, 0x03, 0x00, 0x00, 0x00, 0xff, 0xff, 0xff, 0xff,
0x48, 0x01, 0x00, 0x00, 0x06, 0x00, 0x00, 0x00, 0xfc, 0xad, 0xff, 0xff,
0x08, 0x00, 0x00, 0x00, 0x14, 0x00, 0x00, 0x00, 0x01, 0x00, 0x00, 0x00,
0x80, 0xff, 0xff, 0xff, 0xff, 0xff, 0xff, 0xff, 0x00, 0x00, 0x00, 0x00,
0x01, 0x00, 0x00, 0x00, 0xbf, 0x1b, 0x9e, 0x3e, 0x34, 0x00, 0x00, 0x00,
0x73, 0x65, 0x71, 0x75, 0x65, 0x6e, 0x74, 0x69, 0x61, 0x6c, 0x5f, 0x31,
0x2f, 0x74, 0x63, 0x6e, 0x5f, 0x31, 0x2f, 0x72, 0x65, 0x73, 0x69, 0x64,
0x75, 0x61, 0x6c, 0x5f, 0x62, 0x6c, 0x6f, 0x63, 0x6b, 0x5f, 0x35, 0x5f,
0x31, 0x2f, 0x63, 0x6f, 0x6e, 0x76, 0x31, 0x44, 0x5f, 0x30, 0x5f, 0x31,
0x2f, 0x50, 0x61, 0x64, 0x00, 0x00, 0x00, 0x00, 0x03, 0x00, 0x00, 0x00,
0x01, 0x00, 0x00, 0x00, 0x48, 0x01, 0x00, 0x00, 0x06, 0x00, 0x00, 0x00,
0xb2, 0xae, 0xff, 0xff, 0x00, 0x00, 0x00, 0x01, 0x18, 0x00, 0x00, 0x00,
0x24, 0x00, 0x00, 0x00, 0x44, 0x00, 0x00, 0x00, 0x88, 0x00, 0x00, 0x00,
0x00, 0x00, 0x00, 0x09, 0xac, 0x00, 0x00, 0x00, 0x03, 0x00, 0x00, 0x00,
0xff, 0xff, 0xff, 0xff, 0x08, 0x01, 0x00, 0x00, 0x06, 0x00, 0x00, 0x00,
0x9c, 0xae, 0xff, 0xff, 0x08, 0x00, 0x00, 0x00, 0x14, 0x00, 0x00, 0x00,
0x01, 0x00, 0x00, 0x00, 0x80, 0xff, 0xff, 0xff, 0xff, 0xff, 0xff, 0xff,
0x00, 0x00, 0x00, 0x00, 0x01, 0x00, 0x00, 0x00, 0xbf, 0x1b, 0x9e, 0x3e,
0x6e, 0x00, 0x00, 0x00, 0x73, 0x65, 0x71, 0x75, 0x65, 0x6e, 0x74, 0x69,
0x61, 0x6c, 0x5f, 0x31, 0x2f, 0x74, 0x63, 0x6e, 0x5f, 0x31, 0x2f, 0x72,
0x65, 0x73, 0x69, 0x64, 0x75, 0x61, 0x6c, 0x5f, 0x62, 0x6c, 0x6f, 0x63,
0x6b, 0x5f, 0x34, 0x5f, 0x31, 0x2f, 0x41, 0x63, 0x74, 0x5f, 0x52, 0x65,
0x73, 0x5f, 0x42, 0x6c, 0x6f, 0x63, 0x6b, 0x5f, 0x31, 0x2f, 0x52, 0x65,
0x6c, 0x75, 0x3b, 0x73, 0x65, 0x71, 0x75, 0x65, 0x6e, 0x74, 0x69, 0x61,
0x6c, 0x5f, 0x31, 0x2f, 0x74, 0x63, 0x6e, 0x5f, 0x31, 0x2f, 0x72, 0x65,
0x73, 0x69, 0x64, 0x75, 0x61, 0x6c, 0x5f, 0x62, 0x6c, 0x6f, 0x63, 0x6b,
0x5f, 0x34, 0x5f, 0x31, 0x2f, 0x41, 0x64, 0x64, 0x5f, 0x52, 0x65, 0x73,
0x5f, 0x31, 0x2f, 0x41, 0x64, 0x64, 0x00, 0x00, 0x03, 0x00, 0x00, 0x00,
0x01, 0x00, 0x00, 0x00, 0x08, 0x01, 0x00, 0x00, 0x06, 0x00, 0x00, 0x00,
0x8a, 0xaf, 0xff, 0xff, 0x00, 0x00, 0x00, 0x01, 0x18, 0x00, 0x00, 0x00,
0x24, 0x00, 0x00, 0x00, 0x44, 0x00, 0x00, 0x00, 0x87, 0x00, 0x00, 0x00,
0x00, 0x00, 0x00, 0x09, 0x6c, 0x00, 0x00, 0x00, 0x03, 0x00, 0x00, 0x00,
0xff, 0xff, 0xff, 0xff, 0x08, 0x01, 0x00, 0x00, 0x06, 0x00, 0x00, 0x00,
0x74, 0xaf, 0xff, 0xff, 0x08, 0x00, 0x00, 0x00, 0x14, 0x00, 0x00, 0x00,
0x01, 0x00, 0x00, 0x00, 0x80, 0xff, 0xff, 0xff, 0xff, 0xff, 0xff, 0xff,
0x00, 0x00, 0x00, 0x00, 0x01, 0x00, 0x00, 0x00, 0x9c, 0x7f, 0xe3, 0x3e,
0x2f, 0x00, 0x00, 0x00, 0x73, 0x65, 0x71, 0x75, 0x65, 0x6e, 0x74, 0x69,
0x61, 0x6c, 0x5f, 0x31, 0x2f, 0x74, 0x63, 0x6e, 0x5f, 0x31, 0x2f, 0x41,
0x64, 0x64, 0x5f, 0x53, 0x6b, 0x69, 0x70, 0x5f, 0x43, 0x6f, 0x6e, 0x6e,
0x65, 0x63, 0x74, 0x69, 0x6f, 0x6e, 0x73, 0x5f, 0x31, 0x2f, 0x41, 0x64,
0x64, 0x5f, 0x33, 0x00, 0x03, 0x00, 0x00, 0x00, 0x01, 0x00, 0x00, 0x00,
0x08, 0x01, 0x00, 0x00, 0x06, 0x00, 0x00, 0x00, 0x22, 0xb0, 0xff, 0xff,
0x00, 0x00, 0x00, 0x01, 0x18, 0x00, 0x00, 0x00, 0x24, 0x00, 0x00, 0x00,
0x40, 0x00, 0x00, 0x00, 0x86, 0x00, 0x00, 0x00, 0x00, 0x00, 0x00, 0x09,
0xac, 0x00, 0x00, 0x00, 0x03, 0x00, 0x00, 0x00, 0xff, 0xff, 0xff, 0xff,
0x08, 0x01, 0x00, 0x00, 0x06, 0x00, 0x00, 0x00, 0x0c, 0xb0, 0xff, 0xff,
0x08, 0x00, 0x00, 0x00, 0x10, 0x00, 0x00, 0x00, 0x01, 0x00, 0x00, 0x00,
0x80, 0xff, 0xff, 0xff, 0xff, 0xff, 0xff, 0xff, 0x01, 0x00, 0x00, 0x00,
0x9a, 0xf3, 0x21, 0x3e, 0x72, 0x00, 0x00, 0x00, 0x73, 0x65, 0x71, 0x75,
0x65, 0x6e, 0x74, 0x69, 0x61, 0x6c, 0x5f, 0x31, 0x2f, 0x74, 0x63, 0x6e,
0x5f, 0x31, 0x2f, 0x72, 0x65, 0x73, 0x69, 0x64, 0x75, 0x61, 0x6c, 0x5f,
0x62, 0x6c, 0x6f, 0x63, 0x6b, 0x5f, 0x34, 0x5f, 0x31, 0x2f, 0x41, 0x63,
0x74, 0x5f, 0x43, 0x6f, 0x6e, 0x76, 0x31, 0x44, 0x5f, 0x31, 0x5f, 0x31,
0x2f, 0x52, 0x65, 0x6c, 0x75, 0x3b, 0x73, 0x65, 0x71, 0x75, 0x65, 0x6e,
0x74, 0x69, 0x61, 0x6c, 0x5f, 0x31, 0x2f, 0x74, 0x63, 0x6e, 0x5f, 0x31,
0x2f, 0x72, 0x65, 0x73, 0x69, 0x64, 0x75, 0x61, 0x6c, 0x5f, 0x62, 0x6c,
0x6f, 0x63, 0x6b, 0x5f, 0x34, 0x5f, 0x31, 0x2f, 0x63, 0x6f, 0x6e, 0x76,
0x31, 0x44, 0x5f, 0x31, 0x5f, 0x31, 0x2f, 0x42, 0x69, 0x61, 0x73, 0x41,
0x64, 0x64, 0x00, 0x00, 0x03, 0x00, 0x00, 0x00, 0x01, 0x00, 0x00, 0x00,
0x08, 0x01, 0x00, 0x00, 0x06, 0x00, 0x00, 0x00, 0xfa, 0xb0, 0xff, 0xff,
0x00, 0x00, 0x00, 0x01, 0x18, 0x00, 0x00, 0x00, 0x24, 0x00, 0x00, 0x00,
0x40, 0x00, 0x00, 0x00, 0x85, 0x00, 0x00, 0x00, 0x00, 0x00, 0x00, 0x09,
0x84, 0x00, 0x00, 0x00, 0x03, 0x00, 0x00, 0x00, 0xff, 0xff, 0xff, 0xff,
0x08, 0x01, 0x00, 0x00, 0x06, 0x00, 0x00, 0x00, 0xe4, 0xb0, 0xff, 0xff,
0x08, 0x00, 0x00, 0x00, 0x10, 0x00, 0x00, 0x00, 0x01, 0x00, 0x00, 0x00,
0x16, 0x00, 0x00, 0x00, 0x00, 0x00, 0x00, 0x00, 0x01, 0x00, 0x00, 0x00,
0xd7, 0x81, 0xc4, 0x3e, 0x4b, 0x00, 0x00, 0x00, 0x73, 0x65, 0x71, 0x75,
0x65, 0x6e, 0x74, 0x69, 0x61, 0x6c, 0x5f, 0x31, 0x2f, 0x74, 0x63, 0x6e,
0x5f, 0x31, 0x2f, 0x72, 0x65, 0x73, 0x69, 0x64, 0x75, 0x61, 0x6c, 0x5f,
0x62, 0x6c, 0x6f, 0x63, 0x6b, 0x5f, 0x34, 0x5f, 0x31, 0x2f, 0x63, 0x6f,
0x6e, 0x76, 0x31, 0x44, 0x5f, 0x31, 0x5f, 0x31, 0x2f, 0x63, 0x6f, 0x6e,
0x76, 0x6f, 0x6c, 0x75, 0x74, 0x69, 0x6f, 0x6e, 0x2f, 0x42, 0x61, 0x74,
0x63, 0x68, 0x54, 0x6f, 0x53, 0x70, 0x61, 0x63, 0x65, 0x4e, 0x44, 0x00,
0x03, 0x00, 0x00, 0x00, 0x01, 0x00, 0x00, 0x00, 0x08, 0x01, 0x00, 0x00,
0x06, 0x00, 0x00, 0x00, 0xaa, 0xb1, 0xff, 0xff, 0x00, 0x00, 0x00, 0x01,
0x18, 0x00, 0x00, 0x00, 0x24, 0x00, 0x00, 0x00, 0x40, 0x00, 0x00, 0x00,
0x84, 0x00, 0x00, 0x00, 0x00, 0x00, 0x00, 0x09, 0x80, 0x00, 0x00, 0x00,
0x03, 0x00, 0x00, 0x00, 0xff, 0xff, 0xff, 0xff, 0x11, 0x00, 0x00, 0x00,
0x06, 0x00, 0x00, 0x00, 0x94, 0xb1, 0xff, 0xff, 0x08, 0x00, 0x00, 0x00,
0x10, 0x00, 0x00, 0x00, 0x01, 0x00, 0x00, 0x00, 0x16, 0x00, 0x00, 0x00,
0x00, 0x00, 0x00, 0x00, 0x01, 0x00, 0x00, 0x00, 0xd7, 0x81, 0xc4, 0x3e,
0x44, 0x00, 0x00, 0x00, 0x73, 0x65, 0x71, 0x75, 0x65, 0x6e, 0x74, 0x69,
0x61, 0x6c, 0x5f, 0x31, 0x2f, 0x74, 0x63, 0x6e, 0x5f, 0x31, 0x2f, 0x72,
0x65, 0x73, 0x69, 0x64, 0x75, 0x61, 0x6c, 0x5f, 0x62, 0x6c, 0x6f, 0x63,
0x6b, 0x5f, 0x34, 0x5f, 0x31, 0x2f, 0x63, 0x6f, 0x6e, 0x76, 0x31, 0x44,
0x5f, 0x31, 0x5f, 0x31, 0x2f, 0x63, 0x6f, 0x6e, 0x76, 0x6f, 0x6c, 0x75,
0x74, 0x69, 0x6f, 0x6e, 0x2f, 0x53, 0x71, 0x75, 0x65, 0x65, 0x7a, 0x65,
0x00, 0x00, 0x00, 0x00, 0x03, 0x00, 0x00, 0x00, 0x01, 0x00, 0x00, 0x00,
0x11, 0x00, 0x00, 0x00, 0x06, 0x00, 0x00, 0x00, 0x56, 0xb2, 0xff, 0xff,
0x00, 0x00, 0x00, 0x01, 0x18, 0x00, 0x00, 0x00, 0x28, 0x00, 0x00, 0x00,
0x48, 0x00, 0x00, 0x00, 0x83, 0x00, 0x00, 0x00, 0x00, 0x00, 0x00, 0x09,
0x80, 0x00, 0x00, 0x00, 0x04, 0x00, 0x00, 0x00, 0xff, 0xff, 0xff, 0xff,
0x01, 0x00, 0x00, 0x00, 0x11, 0x00, 0x00, 0x00, 0x06, 0x00, 0x00, 0x00,
0x44, 0xb2, 0xff, 0xff, 0x08, 0x00, 0x00, 0x00, 0x14, 0x00, 0x00, 0x00,
0x01, 0x00, 0x00, 0x00, 0x16, 0x00, 0x00, 0x00, 0x00, 0x00, 0x00, 0x00,
0x00, 0x00, 0x00, 0x00, 0x01, 0x00, 0x00, 0x00, 0xd7, 0x81, 0xc4, 0x3e,
0x3c, 0x00, 0x00, 0x00, 0x73, 0x65, 0x71, 0x75, 0x65, 0x6e, 0x74, 0x69,
0x61, 0x6c, 0x5f, 0x31, 0x2f, 0x74, 0x63, 0x6e, 0x5f, 0x31, 0x2f, 0x72,
0x65, 0x73, 0x69, 0x64, 0x75, 0x61, 0x6c, 0x5f, 0x62, 0x6c, 0x6f, 0x63,
0x6b, 0x5f, 0x34, 0x5f, 0x31, 0x2f, 0x63, 0x6f, 0x6e, 0x76, 0x31, 0x44,
0x5f, 0x31, 0x5f, 0x31, 0x2f, 0x63, 0x6f, 0x6e, 0x76, 0x6f, 0x6c, 0x75,
0x74, 0x69, 0x6f, 0x6e, 0x00, 0x00, 0x00, 0x00, 0x04, 0x00, 0x00, 0x00,
0x01, 0x00, 0x00, 0x00, 0x01, 0x00, 0x00, 0x00, 0x11, 0x00, 0x00, 0x00,
0x06, 0x00, 0x00, 0x00, 0x06, 0xb3, 0xff, 0xff, 0x00, 0x00, 0x00, 0x01,
0x18, 0x00, 0x00, 0x00, 0x28, 0x00, 0x00, 0x00, 0x44, 0x00, 0x00, 0x00,
0x82, 0x00, 0x00, 0x00, 0x00, 0x00, 0x00, 0x09, 0x84, 0x00, 0x00, 0x00,
0x04, 0x00, 0x00, 0x00, 0xff, 0xff, 0xff, 0xff, 0x01, 0x00, 0x00, 0x00,
0x13, 0x00, 0x00, 0x00, 0x06, 0x00, 0x00, 0x00, 0xf4, 0xb2, 0xff, 0xff,
0x08, 0x00, 0x00, 0x00, 0x10, 0x00, 0x00, 0x00, 0x01, 0x00, 0x00, 0x00,
0x80, 0xff, 0xff, 0xff, 0xff, 0xff, 0xff, 0xff, 0x01, 0x00, 0x00, 0x00,
0xdd, 0xb8, 0xc5, 0x3e, 0x47, 0x00, 0x00, 0x00, 0x73, 0x65, 0x71, 0x75,
0x65, 0x6e, 0x74, 0x69, 0x61, 0x6c, 0x5f, 0x31, 0x2f, 0x74, 0x63, 0x6e,
0x5f, 0x31, 0x2f, 0x72, 0x65, 0x73, 0x69, 0x64, 0x75, 0x61, 0x6c, 0x5f,
0x62, 0x6c, 0x6f, 0x63, 0x6b, 0x5f, 0x34, 0x5f, 0x31, 0x2f, 0x63, 0x6f,
0x6e, 0x76, 0x31, 0x44, 0x5f, 0x31, 0x5f, 0x31, 0x2f, 0x63, 0x6f, 0x6e,
0x76, 0x6f, 0x6c, 0x75, 0x74, 0x69, 0x6f, 0x6e, 0x2f, 0x45, 0x78, 0x70,
0x61, 0x6e, 0x64, 0x44, 0x69, 0x6d, 0x73, 0x00, 0x04, 0x00, 0x00, 0x00,
0x01, 0x00, 0x00, 0x00, 0x01, 0x00, 0x00, 0x00, 0x13, 0x00, 0x00, 0x00,
0x06, 0x00, 0x00, 0x00, 0xba, 0xb3, 0xff, 0xff, 0x00, 0x00, 0x00, 0x01,
0x18, 0x00, 0x00, 0x00, 0x24, 0x00, 0x00, 0x00, 0x40, 0x00, 0x00, 0x00,
0x81, 0x00, 0x00, 0x00, 0x00, 0x00, 0x00, 0x09, 0x84, 0x00, 0x00, 0x00,
0x03, 0x00, 0x00, 0x00, 0xff, 0xff, 0xff, 0xff, 0x13, 0x00, 0x00, 0x00,
0x06, 0x00, 0x00, 0x00, 0xa4, 0xb3, 0xff, 0xff, 0x08, 0x00, 0x00, 0x00,
0x10, 0x00, 0x00, 0x00, 0x01, 0x00, 0x00, 0x00, 0x80, 0xff, 0xff, 0xff,
0xff, 0xff, 0xff, 0xff, 0x01, 0x00, 0x00, 0x00, 0xdd, 0xb8, 0xc5, 0x3e,
0x4b, 0x00, 0x00, 0x00, 0x73, 0x65, 0x71, 0x75, 0x65, 0x6e, 0x74, 0x69,
0x61, 0x6c, 0x5f, 0x31, 0x2f, 0x74, 0x63, 0x6e, 0x5f, 0x31, 0x2f, 0x72,
0x65, 0x73, 0x69, 0x64, 0x75, 0x61, 0x6c, 0x5f, 0x62, 0x6c, 0x6f, 0x63,
0x6b, 0x5f, 0x34, 0x5f, 0x31, 0x2f, 0x63, 0x6f, 0x6e, 0x76, 0x31, 0x44,
0x5f, 0x31, 0x5f, 0x31, 0x2f, 0x63, 0x6f, 0x6e, 0x76, 0x6f, 0x6c, 0x75,
0x74, 0x69, 0x6f, 0x6e, 0x2f, 0x53, 0x70, 0x61, 0x63, 0x65, 0x54, 0x6f,
0x42, 0x61, 0x74, 0x63, 0x68, 0x4e, 0x44, 0x00, 0x03, 0x00, 0x00, 0x00,
0x01, 0x00, 0x00, 0x00, 0x13, 0x00, 0x00, 0x00, 0x06, 0x00, 0x00, 0x00,
0x6a, 0xb4, 0xff, 0xff, 0x00, 0x00, 0x00, 0x01, 0x18, 0x00, 0x00, 0x00,
0x24, 0x00, 0x00, 0x00, 0x44, 0x00, 0x00, 0x00, 0x80, 0x00, 0x00, 0x00,
0x00, 0x00, 0x00, 0x09, 0x74, 0x00, 0x00, 0x00, 0x03, 0x00, 0x00, 0x00,
0xff, 0xff, 0xff, 0xff, 0x28, 0x01, 0x00, 0x00, 0x06, 0x00, 0x00, 0x00,
0x54, 0xb4, 0xff, 0xff, 0x08, 0x00, 0x00, 0x00, 0x14, 0x00, 0x00, 0x00,
0x01, 0x00, 0x00, 0x00, 0x80, 0xff, 0xff, 0xff, 0xff, 0xff, 0xff, 0xff,
0x00, 0x00, 0x00, 0x00, 0x01, 0x00, 0x00, 0x00, 0xdd, 0xb8, 0xc5, 0x3e,
0x34, 0x00, 0x00, 0x00, 0x73, 0x65, 0x71, 0x75, 0x65, 0x6e, 0x74, 0x69,
0x61, 0x6c, 0x5f, 0x31, 0x2f, 0x74, 0x63, 0x6e, 0x5f, 0x31, 0x2f, 0x72,
0x65, 0x73, 0x69, 0x64, 0x75, 0x61, 0x6c, 0x5f, 0x62, 0x6c, 0x6f, 0x63,
0x6b, 0x5f, 0x34, 0x5f, 0x31, 0x2f, 0x63, 0x6f, 0x6e, 0x76, 0x31, 0x44,
0x5f, 0x31, 0x5f, 0x31, 0x2f, 0x50, 0x61, 0x64, 0x00, 0x00, 0x00, 0x00,
0x03, 0x00, 0x00, 0x00, 0x01, 0x00, 0x00, 0x00, 0x28, 0x01, 0x00, 0x00,
0x06, 0x00, 0x00, 0x00, 0x0a, 0xb5, 0xff, 0xff, 0x00, 0x00, 0x00, 0x01,
0x18, 0x00, 0x00, 0x00, 0x24, 0x00, 0x00, 0x00, 0x40, 0x00, 0x00, 0x00,
0x7f, 0x00, 0x00, 0x00, 0x00, 0x00, 0x00, 0x09, 0xac, 0x00, 0x00, 0x00,
0x03, 0x00, 0x00, 0x00, 0xff, 0xff, 0xff, 0xff, 0x08, 0x01, 0x00, 0x00,
0x06, 0x00, 0x00, 0x00, 0xf4, 0xb4, 0xff, 0xff, 0x08, 0x00, 0x00, 0x00,
0x10, 0x00, 0x00, 0x00, 0x01, 0x00, 0x00, 0x00, 0x80, 0xff, 0xff, 0xff,
0xff, 0xff, 0xff, 0xff, 0x01, 0x00, 0x00, 0x00, 0xdd, 0xb8, 0xc5, 0x3e,
0x72, 0x00, 0x00, 0x00, 0x73, 0x65, 0x71, 0x75, 0x65, 0x6e, 0x74, 0x69,
0x61, 0x6c, 0x5f, 0x31, 0x2f, 0x74, 0x63, 0x6e, 0x5f, 0x31, 0x2f, 0x72,
0x65, 0x73, 0x69, 0x64, 0x75, 0x61, 0x6c, 0x5f, 0x62, 0x6c, 0x6f, 0x63,
0x6b, 0x5f, 0x34, 0x5f, 0x31, 0x2f, 0x41, 0x63, 0x74, 0x5f, 0x43, 0x6f,
0x6e, 0x76, 0x31, 0x44, 0x5f, 0x30, 0x5f, 0x31, 0x2f, 0x52, 0x65, 0x6c,
0x75, 0x3b, 0x73, 0x65, 0x71, 0x75, 0x65, 0x6e, 0x74, 0x69, 0x61, 0x6c,
0x5f, 0x31, 0x2f, 0x74, 0x63, 0x6e, 0x5f, 0x31, 0x2f, 0x72, 0x65, 0x73,
0x69, 0x64, 0x75, 0x61, 0x6c, 0x5f, 0x62, 0x6c, 0x6f, 0x63, 0x6b, 0x5f,
0x34, 0x5f, 0x31, 0x2f, 0x63, 0x6f, 0x6e, 0x76, 0x31, 0x44, 0x5f, 0x30,
0x5f, 0x31, 0x2f, 0x42, 0x69, 0x61, 0x73, 0x41, 0x64, 0x64, 0x00, 0x00,
0x03, 0x00, 0x00, 0x00, 0x01, 0x00, 0x00, 0x00, 0x08, 0x01, 0x00, 0x00,
0x06, 0x00, 0x00, 0x00, 0xe2, 0xb5, 0xff, 0xff, 0x00, 0x00, 0x00, 0x01,
0x18, 0x00, 0x00, 0x00, 0x24, 0x00, 0x00, 0x00, 0x40, 0x00, 0x00, 0x00,
0x7e, 0x00, 0x00, 0x00, 0x00, 0x00, 0x00, 0x09, 0x84, 0x00, 0x00, 0x00,
0x03, 0x00, 0x00, 0x00, 0xff, 0xff, 0xff, 0xff, 0x08, 0x01, 0x00, 0x00,
0x06, 0x00, 0x00, 0x00, 0xcc, 0xb5, 0xff, 0xff, 0x08, 0x00, 0x00, 0x00,
0x10, 0x00, 0x00, 0x00, 0x01, 0x00, 0x00, 0x00, 0xf1, 0xff, 0xff, 0xff,
0xff, 0xff, 0xff, 0xff, 0x01, 0x00, 0x00, 0x00, 0x46, 0xb4, 0x31, 0x3f,
0x4b, 0x00, 0x00, 0x00, 0x73, 0x65, 0x71, 0x75, 0x65, 0x6e, 0x74, 0x69,
0x61, 0x6c, 0x5f, 0x31, 0x2f, 0x74, 0x63, 0x6e, 0x5f, 0x31, 0x2f, 0x72,
0x65, 0x73, 0x69, 0x64, 0x75, 0x61, 0x6c, 0x5f, 0x62, 0x6c, 0x6f, 0x63,
0x6b, 0x5f, 0x34, 0x5f, 0x31, 0x2f, 0x63, 0x6f, 0x6e, 0x76, 0x31, 0x44,
0x5f, 0x30, 0x5f, 0x31, 0x2f, 0x63, 0x6f, 0x6e, 0x76, 0x6f, 0x6c, 0x75,
0x74, 0x69, 0x6f, 0x6e, 0x2f, 0x42, 0x61, 0x74, 0x63, 0x68, 0x54, 0x6f,
0x53, 0x70, 0x61, 0x63, 0x65, 0x4e, 0x44, 0x00, 0x03, 0x00, 0x00, 0x00,
0x01, 0x00, 0x00, 0x00, 0x08, 0x01, 0x00, 0x00, 0x06, 0x00, 0x00, 0x00,
0x92, 0xb6, 0xff, 0xff, 0x00, 0x00, 0x00, 0x01, 0x18, 0x00, 0x00, 0x00,
0x24, 0x00, 0x00, 0x00, 0x40, 0x00, 0x00, 0x00, 0x7d, 0x00, 0x00, 0x00,
0x00, 0x00, 0x00, 0x09, 0x80, 0x00, 0x00, 0x00, 0x03, 0x00, 0x00, 0x00,
0xff, 0xff, 0xff, 0xff, 0x11, 0x00, 0x00, 0x00, 0x06, 0x00, 0x00, 0x00,
0x7c, 0xb6, 0xff, 0xff, 0x08, 0x00, 0x00, 0x00, 0x10, 0x00, 0x00, 0x00,
0x01, 0x00, 0x00, 0x00, 0xf1, 0xff, 0xff, 0xff, 0xff, 0xff, 0xff, 0xff,
0x01, 0x00, 0x00, 0x00, 0x46, 0xb4, 0x31, 0x3f, 0x44, 0x00, 0x00, 0x00,
0x73, 0x65, 0x71, 0x75, 0x65, 0x6e, 0x74, 0x69, 0x61, 0x6c, 0x5f, 0x31,
0x2f, 0x74, 0x63, 0x6e, 0x5f, 0x31, 0x2f, 0x72, 0x65, 0x73, 0x69, 0x64,
0x75, 0x61, 0x6c, 0x5f, 0x62, 0x6c, 0x6f, 0x63, 0x6b, 0x5f, 0x34, 0x5f,
0x31, 0x2f, 0x63, 0x6f, 0x6e, 0x76, 0x31, 0x44, 0x5f, 0x30, 0x5f, 0x31,
0x2f, 0x63, 0x6f, 0x6e, 0x76, 0x6f, 0x6c, 0x75, 0x74, 0x69, 0x6f, 0x6e,
0x2f, 0x53, 0x71, 0x75, 0x65, 0x65, 0x7a, 0x65, 0x00, 0x00, 0x00, 0x00,
0x03, 0x00, 0x00, 0x00, 0x01, 0x00, 0x00, 0x00, 0x11, 0x00, 0x00, 0x00,
0x06, 0x00, 0x00, 0x00, 0x3e, 0xb7, 0xff, 0xff, 0x00, 0x00, 0x00, 0x01,
0x18, 0x00, 0x00, 0x00, 0x28, 0x00, 0x00, 0x00, 0x48, 0x00, 0x00, 0x00,
0x7c, 0x00, 0x00, 0x00, 0x00, 0x00, 0x00, 0x09, 0x80, 0x00, 0x00, 0x00,
0x04, 0x00, 0x00, 0x00, 0xff, 0xff, 0xff, 0xff, 0x01, 0x00, 0x00, 0x00,
0x11, 0x00, 0x00, 0x00, 0x06, 0x00, 0x00, 0x00, 0x2c, 0xb7, 0xff, 0xff,
0x08, 0x00, 0x00, 0x00, 0x14, 0x00, 0x00, 0x00, 0x01, 0x00, 0x00, 0x00,
0xf1, 0xff, 0xff, 0xff, 0xff, 0xff, 0xff, 0xff, 0x00, 0x00, 0x00, 0x00,
0x01, 0x00, 0x00, 0x00, 0x46, 0xb4, 0x31, 0x3f, 0x3c, 0x00, 0x00, 0x00,
0x73, 0x65, 0x71, 0x75, 0x65, 0x6e, 0x74, 0x69, 0x61, 0x6c, 0x5f, 0x31,
0x2f, 0x74, 0x63, 0x6e, 0x5f, 0x31, 0x2f, 0x72, 0x65, 0x73, 0x69, 0x64,
0x75, 0x61, 0x6c, 0x5f, 0x62, 0x6c, 0x6f, 0x63, 0x6b, 0x5f, 0x34, 0x5f,
0x31, 0x2f, 0x63, 0x6f, 0x6e, 0x76, 0x31, 0x44, 0x5f, 0x30, 0x5f, 0x31,
0x2f, 0x63, 0x6f, 0x6e, 0x76, 0x6f, 0x6c, 0x75, 0x74, 0x69, 0x6f, 0x6e,
0x00, 0x00, 0x00, 0x00, 0x04, 0x00, 0x00, 0x00, 0x01, 0x00, 0x00, 0x00,
0x01, 0x00, 0x00, 0x00, 0x11, 0x00, 0x00, 0x00, 0x06, 0x00, 0x00, 0x00,
0xee, 0xb7, 0xff, 0xff, 0x00, 0x00, 0x00, 0x01, 0x18, 0x00, 0x00, 0x00,
0x28, 0x00, 0x00, 0x00, 0x44, 0x00, 0x00, 0x00, 0x7b, 0x00, 0x00, 0x00,
0x00, 0x00, 0x00, 0x09, 0x84, 0x00, 0x00, 0x00, 0x04, 0x00, 0x00, 0x00,
0xff, 0xff, 0xff, 0xff, 0x01, 0x00, 0x00, 0x00, 0x13, 0x00, 0x00, 0x00,
0x06, 0x00, 0x00, 0x00, 0xdc, 0xb7, 0xff, 0xff, 0x08, 0x00, 0x00, 0x00,
0x10, 0x00, 0x00, 0x00, 0x01, 0x00, 0x00, 0x00, 0x80, 0xff, 0xff, 0xff,
0xff, 0xff, 0xff, 0xff, 0x01, 0x00, 0x00, 0x00, 0x25, 0xfb, 0x63, 0x3e,
0x47, 0x00, 0x00, 0x00, 0x73, 0x65, 0x71, 0x75, 0x65, 0x6e, 0x74, 0x69,
0x61, 0x6c, 0x5f, 0x31, 0x2f, 0x74, 0x63, 0x6e, 0x5f, 0x31, 0x2f, 0x72,
0x65, 0x73, 0x69, 0x64, 0x75, 0x61, 0x6c, 0x5f, 0x62, 0x6c, 0x6f, 0x63,
0x6b, 0x5f, 0x34, 0x5f, 0x31, 0x2f, 0x63, 0x6f, 0x6e, 0x76, 0x31, 0x44,
0x5f, 0x30, 0x5f, 0x31, 0x2f, 0x63, 0x6f, 0x6e, 0x76, 0x6f, 0x6c, 0x75,
0x74, 0x69, 0x6f, 0x6e, 0x2f, 0x45, 0x78, 0x70, 0x61, 0x6e, 0x64, 0x44,
0x69, 0x6d, 0x73, 0x00, 0x04, 0x00, 0x00, 0x00, 0x01, 0x00, 0x00, 0x00,
0x01, 0x00, 0x00, 0x00, 0x13, 0x00, 0x00, 0x00, 0x06, 0x00, 0x00, 0x00,
0xa2, 0xb8, 0xff, 0xff, 0x00, 0x00, 0x00, 0x01, 0x18, 0x00, 0x00, 0x00,
0x24, 0x00, 0x00, 0x00, 0x40, 0x00, 0x00, 0x00, 0x7a, 0x00, 0x00, 0x00,
0x00, 0x00, 0x00, 0x09, 0x84, 0x00, 0x00, 0x00, 0x03, 0x00, 0x00, 0x00,
0xff, 0xff, 0xff, 0xff, 0x13, 0x00, 0x00, 0x00, 0x06, 0x00, 0x00, 0x00,
0x8c, 0xb8, 0xff, 0xff, 0x08, 0x00, 0x00, 0x00, 0x10, 0x00, 0x00, 0x00,
0x01, 0x00, 0x00, 0x00, 0x80, 0xff, 0xff, 0xff, 0xff, 0xff, 0xff, 0xff,
0x01, 0x00, 0x00, 0x00, 0x25, 0xfb, 0x63, 0x3e, 0x4b, 0x00, 0x00, 0x00,
0x73, 0x65, 0x71, 0x75, 0x65, 0x6e, 0x74, 0x69, 0x61, 0x6c, 0x5f, 0x31,
0x2f, 0x74, 0x63, 0x6e, 0x5f, 0x31, 0x2f, 0x72, 0x65, 0x73, 0x69, 0x64,
0x75, 0x61, 0x6c, 0x5f, 0x62, 0x6c, 0x6f, 0x63, 0x6b, 0x5f, 0x34, 0x5f,
0x31, 0x2f, 0x63, 0x6f, 0x6e, 0x76, 0x31, 0x44, 0x5f, 0x30, 0x5f, 0x31,
0x2f, 0x63, 0x6f, 0x6e, 0x76, 0x6f, 0x6c, 0x75, 0x74, 0x69, 0x6f, 0x6e,
0x2f, 0x53, 0x70, 0x61, 0x63, 0x65, 0x54, 0x6f, 0x42, 0x61, 0x74, 0x63,
0x68, 0x4e, 0x44, 0x00, 0x03, 0x00, 0x00, 0x00, 0x01, 0x00, 0x00, 0x00,
0x13, 0x00, 0x00, 0x00, 0x06, 0x00, 0x00, 0x00, 0x52, 0xb9, 0xff, 0xff,
0x00, 0x00, 0x00, 0x01, 0x18, 0x00, 0x00, 0x00, 0x24, 0x00, 0x00, 0x00,
0x44, 0x00, 0x00, 0x00, 0x79, 0x00, 0x00, 0x00, 0x00, 0x00, 0x00, 0x09,
0x74, 0x00, 0x00, 0x00, 0x03, 0x00, 0x00, 0x00, 0xff, 0xff, 0xff, 0xff,
0x28, 0x01, 0x00, 0x00, 0x06, 0x00, 0x00, 0x00, 0x3c, 0xb9, 0xff, 0xff,
0x08, 0x00, 0x00, 0x00, 0x14, 0x00, 0x00, 0x00, 0x01, 0x00, 0x00, 0x00,
0x80, 0xff, 0xff, 0xff, 0xff, 0xff, 0xff, 0xff, 0x00, 0x00, 0x00, 0x00,
0x01, 0x00, 0x00, 0x00, 0x25, 0xfb, 0x63, 0x3e, 0x34, 0x00, 0x00, 0x00,
0x73, 0x65, 0x71, 0x75, 0x65, 0x6e, 0x74, 0x69, 0x61, 0x6c, 0x5f, 0x31,
0x2f, 0x74, 0x63, 0x6e, 0x5f, 0x31, 0x2f, 0x72, 0x65, 0x73, 0x69, 0x64,
0x75, 0x61, 0x6c, 0x5f, 0x62, 0x6c, 0x6f, 0x63, 0x6b, 0x5f, 0x34, 0x5f,
0x31, 0x2f, 0x63, 0x6f, 0x6e, 0x76, 0x31, 0x44, 0x5f, 0x30, 0x5f, 0x31,
0x2f, 0x50, 0x61, 0x64, 0x00, 0x00, 0x00, 0x00, 0x03, 0x00, 0x00, 0x00,
0x01, 0x00, 0x00, 0x00, 0x28, 0x01, 0x00, 0x00, 0x06, 0x00, 0x00, 0x00,
0xf2, 0xb9, 0xff, 0xff, 0x00, 0x00, 0x00, 0x01, 0x18, 0x00, 0x00, 0x00,
0x24, 0x00, 0x00, 0x00, 0x44, 0x00, 0x00, 0x00, 0x78, 0x00, 0x00, 0x00,
0x00, 0x00, 0x00, 0x09, 0xac, 0x00, 0x00, 0x00, 0x03, 0x00, 0x00, 0x00,
0xff, 0xff, 0xff, 0xff, 0x08, 0x01, 0x00, 0x00, 0x06, 0x00, 0x00, 0x00,
0xdc, 0xb9, 0xff, 0xff, 0x08, 0x00, 0x00, 0x00, 0x14, 0x00, 0x00, 0x00,
0x01, 0x00, 0x00, 0x00, 0x80, 0xff, 0xff, 0xff, 0xff, 0xff, 0xff, 0xff,
0x00, 0x00, 0x00, 0x00, 0x01, 0x00, 0x00, 0x00, 0x25, 0xfb, 0x63, 0x3e,
0x6e, 0x00, 0x00, 0x00, 0x73, 0x65, 0x71, 0x75, 0x65, 0x6e, 0x74, 0x69,
0x61, 0x6c, 0x5f, 0x31, 0x2f, 0x74, 0x63, 0x6e, 0x5f, 0x31, 0x2f, 0x72,
0x65, 0x73, 0x69, 0x64, 0x75, 0x61, 0x6c, 0x5f, 0x62, 0x6c, 0x6f, 0x63,
0x6b, 0x5f, 0x33, 0x5f, 0x31, 0x2f, 0x41, 0x63, 0x74, 0x5f, 0x52, 0x65,
0x73, 0x5f, 0x42, 0x6c, 0x6f, 0x63, 0x6b, 0x5f, 0x31, 0x2f, 0x52, 0x65,
0x6c, 0x75, 0x3b, 0x73, 0x65, 0x71, 0x75, 0x65, 0x6e, 0x74, 0x69, 0x61,
0x6c, 0x5f, 0x31, 0x2f, 0x74, 0x63, 0x6e, 0x5f, 0x31, 0x2f, 0x72, 0x65,
0x73, 0x69, 0x64, 0x75, 0x61, 0x6c, 0x5f, 0x62, 0x6c, 0x6f, 0x63, 0x6b,
0x5f, 0x33, 0x5f, 0x31, 0x2f, 0x41, 0x64, 0x64, 0x5f, 0x52, 0x65, 0x73,
0x5f, 0x31, 0x2f, 0x41, 0x64, 0x64, 0x00, 0x00, 0x03, 0x00, 0x00, 0x00,
0x01, 0x00, 0x00, 0x00, 0x08, 0x01, 0x00, 0x00, 0x06, 0x00, 0x00, 0x00,
0xca, 0xba, 0xff, 0xff, 0x00, 0x00, 0x00, 0x01, 0x18, 0x00, 0x00, 0x00,
0x24, 0x00, 0x00, 0x00, 0x44, 0x00, 0x00, 0x00, 0x77, 0x00, 0x00, 0x00,
0x00, 0x00, 0x00, 0x09, 0x6c, 0x00, 0x00, 0x00, 0x03, 0x00, 0x00, 0x00,
0xff, 0xff, 0xff, 0xff, 0x08, 0x01, 0x00, 0x00, 0x06, 0x00, 0x00, 0x00,
0xb4, 0xba, 0xff, 0xff, 0x08, 0x00, 0x00, 0x00, 0x14, 0x00, 0x00, 0x00,
0x01, 0x00, 0x00, 0x00, 0x80, 0xff, 0xff, 0xff, 0xff, 0xff, 0xff, 0xff,
0x00, 0x00, 0x00, 0x00, 0x01, 0x00, 0x00, 0x00, 0x84, 0x37, 0xa2, 0x3e,
0x2f, 0x00, 0x00, 0x00, 0x73, 0x65, 0x71, 0x75, 0x65, 0x6e, 0x74, 0x69,
0x61, 0x6c, 0x5f, 0x31, 0x2f, 0x74, 0x63, 0x6e, 0x5f, 0x31, 0x2f, 0x41,
0x64, 0x64, 0x5f, 0x53, 0x6b, 0x69, 0x70, 0x5f, 0x43, 0x6f, 0x6e, 0x6e,
0x65, 0x63, 0x74, 0x69, 0x6f, 0x6e, 0x73, 0x5f, 0x31, 0x2f, 0x41, 0x64,
0x64, 0x5f, 0x32, 0x00, 0x03, 0x00, 0x00, 0x00, 0x01, 0x00, 0x00, 0x00,
0x08, 0x01, 0x00, 0x00, 0x06, 0x00, 0x00, 0x00, 0x62, 0xbb, 0xff, 0xff,
0x00, 0x00, 0x00, 0x01, 0x18, 0x00, 0x00, 0x00, 0x24, 0x00, 0x00, 0x00,
0x40, 0x00, 0x00, 0x00, 0x76, 0x00, 0x00, 0x00, 0x00, 0x00, 0x00, 0x09,
0xac, 0x00, 0x00, 0x00, 0x03, 0x00, 0x00, 0x00, 0xff, 0xff, 0xff, 0xff,
0x08, 0x01, 0x00, 0x00, 0x06, 0x00, 0x00, 0x00, 0x4c, 0xbb, 0xff, 0xff,
0x08, 0x00, 0x00, 0x00, 0x10, 0x00, 0x00, 0x00, 0x01, 0x00, 0x00, 0x00,
0x80, 0xff, 0xff, 0xff, 0xff, 0xff, 0xff, 0xff, 0x01, 0x00, 0x00, 0x00,
0xba, 0xc6, 0x30, 0x3e, 0x72, 0x00, 0x00, 0x00, 0x73, 0x65, 0x71, 0x75,
0x65, 0x6e, 0x74, 0x69, 0x61, 0x6c, 0x5f, 0x31, 0x2f, 0x74, 0x63, 0x6e,
0x5f, 0x31, 0x2f, 0x72, 0x65, 0x73, 0x69, 0x64, 0x75, 0x61, 0x6c, 0x5f,
0x62, 0x6c, 0x6f, 0x63, 0x6b, 0x5f, 0x33, 0x5f, 0x31, 0x2f, 0x41, 0x63,
0x74, 0x5f, 0x43, 0x6f, 0x6e, 0x76, 0x31, 0x44, 0x5f, 0x31, 0x5f, 0x31,
0x2f, 0x52, 0x65, 0x6c, 0x75, 0x3b, 0x73, 0x65, 0x71, 0x75, 0x65, 0x6e,
0x74, 0x69, 0x61, 0x6c, 0x5f, 0x31, 0x2f, 0x74, 0x63, 0x6e, 0x5f, 0x31,
0x2f, 0x72, 0x65, 0x73, 0x69, 0x64, 0x75, 0x61, 0x6c, 0x5f, 0x62, 0x6c,
0x6f, 0x63, 0x6b, 0x5f, 0x33, 0x5f, 0x31, 0x2f, 0x63, 0x6f, 0x6e, 0x76,
0x31, 0x44, 0x5f, 0x31, 0x5f, 0x31, 0x2f, 0x42, 0x69, 0x61, 0x73, 0x41,
0x64, 0x64, 0x00, 0x00, 0x03, 0x00, 0x00, 0x00, 0x01, 0x00, 0x00, 0x00,
0x08, 0x01, 0x00, 0x00, 0x06, 0x00, 0x00, 0x00, 0x3a, 0xbc, 0xff, 0xff,
0x00, 0x00, 0x00, 0x01, 0x18, 0x00, 0x00, 0x00, 0x24, 0x00, 0x00, 0x00,
0x40, 0x00, 0x00, 0x00, 0x75, 0x00, 0x00, 0x00, 0x00, 0x00, 0x00, 0x09,
0x84, 0x00, 0x00, 0x00, 0x03, 0x00, 0x00, 0x00, 0xff, 0xff, 0xff, 0xff,
0x08, 0x01, 0x00, 0x00, 0x06, 0x00, 0x00, 0x00, 0x24, 0xbc, 0xff, 0xff,
0x08, 0x00, 0x00, 0x00, 0x10, 0x00, 0x00, 0x00, 0x01, 0x00, 0x00, 0x00,
0x27, 0x00, 0x00, 0x00, 0x00, 0x00, 0x00, 0x00, 0x01, 0x00, 0x00, 0x00,
0x7a, 0x96, 0x00, 0x3f, 0x4b, 0x00, 0x00, 0x00, 0x73, 0x65, 0x71, 0x75,
0x65, 0x6e, 0x74, 0x69, 0x61, 0x6c, 0x5f, 0x31, 0x2f, 0x74, 0x63, 0x6e,
0x5f, 0x31, 0x2f, 0x72, 0x65, 0x73, 0x69, 0x64, 0x75, 0x61, 0x6c, 0x5f,
0x62, 0x6c, 0x6f, 0x63, 0x6b, 0x5f, 0x33, 0x5f, 0x31, 0x2f, 0x63, 0x6f,
0x6e, 0x76, 0x31, 0x44, 0x5f, 0x31, 0x5f, 0x31, 0x2f, 0x63, 0x6f, 0x6e,
0x76, 0x6f, 0x6c, 0x75, 0x74, 0x69, 0x6f, 0x6e, 0x2f, 0x42, 0x61, 0x74,
0x63, 0x68, 0x54, 0x6f, 0x53, 0x70, 0x61, 0x63, 0x65, 0x4e, 0x44, 0x00,
0x03, 0x00, 0x00, 0x00, 0x01, 0x00, 0x00, 0x00, 0x08, 0x01, 0x00, 0x00,
0x06, 0x00, 0x00, 0x00, 0xea, 0xbc, 0xff, 0xff, 0x00, 0x00, 0x00, 0x01,
0x18, 0x00, 0x00, 0x00, 0x24, 0x00, 0x00, 0x00, 0x40, 0x00, 0x00, 0x00,
0x74, 0x00, 0x00, 0x00, 0x00, 0x00, 0x00, 0x09, 0x80, 0x00, 0x00, 0x00,
0x03, 0x00, 0x00, 0x00, 0xff, 0xff, 0xff, 0xff, 0x21, 0x00, 0x00, 0x00,
0x06, 0x00, 0x00, 0x00, 0xd4, 0xbc, 0xff, 0xff, 0x08, 0x00, 0x00, 0x00,
0x10, 0x00, 0x00, 0x00, 0x01, 0x00, 0x00, 0x00, 0x27, 0x00, 0x00, 0x00,
0x00, 0x00, 0x00, 0x00, 0x01, 0x00, 0x00, 0x00, 0x7a, 0x96, 0x00, 0x3f,
0x44, 0x00, 0x00, 0x00, 0x73, 0x65, 0x71, 0x75, 0x65, 0x6e, 0x74, 0x69,
0x61, 0x6c, 0x5f, 0x31, 0x2f, 0x74, 0x63, 0x6e, 0x5f, 0x31, 0x2f, 0x72,
